3E7508CA
BE005142
BDE18ACE
BE889BD4
BE77ED1B
BDAA9E0C
BDB39499
BD1D6F29
BE35C386
BDB0E883
BEF595C0
3E0264AD
BDE27539
3E9FABE9
BE86E267
3E50D972
3E233F44
BE420FE2
3EAE2D5A
3EEA1861
3EACD97C
3E27DC12
3E05649B
3ED96EEB
3D0FA160
3ED78250
BEBA9324
BE34D02D
BE88D363
3E3CECB2
3E6731D7
3D0DA5E6
3CAA4DC1
BE1E1F44
3DC27DC4
BEACF172
BE56E09D
3ECA096B
BE117369
3EADD335
3DDC682A
BC001889
3BAB72F5
BE5D19D0
3E1DD947
BD937FEF
BD146684
BDDFE7D3
BE81109D
3DD7F6FF
3E2C1B59
BE718571
BD98C67F
3DDFE031
BDB20EB8
BE421CA4
3EBE2CB4
3EA81765
BD52DDBB
BDDCB033
3A4647CD
3E069061
3E845CC2
3E26C9D6
3E80DB25
BD025270
3E6D645A
3F0BF579
BB21C085
3E85CCC6
BE6EBA2D
3E5B6643
3CB19330
BE6ADD69
3E07E0B8
3E04F2B7
BD998569
BEF101D8
BE7905D0
BE9F7733
3E8952DA
BC14B9B6
BB9CB73D
BDB9A3E4
BE16B78D
3D703763
BE0B266E
BEA640F0
3EBEBB4E
BB3A3068
BE6B96E3
3EBFAF79
BE7E6FF9
3DCFF570
BF018EE1
BDA953B1
BE0C12E2
3E922B38
3E183047
BEBB45BC
BECDF802
3DFF4377
3EB32EC8
BE4434B3
BE4A7C48
3E2DBA1E
3EA8EAA7
BE9C0E65
BE05FC14
BE1B561D
BE8F016B
3E049A6E
BE17BCD4
BE6B7E43
3E8EC5D3
3E8B5BB6
BDB3ECED
3D1AC711
3EA1E2B7
3E5D10FB
3DB8F496
BDFA4566
BD216E1A
BE7BD633
3E156F4D
BD38E3A7
BE67E421
BEBC91C6
