BEAD5727
3CF73348
BE31C88D
3ABED3E6
3E3EA9F5
BE402FEF
3DCCA890
BDF6770E
3D439E2A
3E61157F
3E1E356D
BE3F9005
3D211F45
BCF0C179
3E73523E
BEB94DBF
3CB45415
BB87D1B7
BC262E7D
BDF74F18
3DC3EFC4
BD00057F
3DAC1B05
BE1750E1
3D728B10
BD093DF7
3D1F2E3B
BDB6D996
3E714BFF
BDD6AB7B
3CABBEC0
BD8041D8
3E8B0D77
BE29E468
3E0CDAA3
BCFA2256
BD438B56
BE1268E0
3E235C13
BDA852DD
BDBBFAFC
BE0E3537
BD3EDDC4
BE00BC7F
3DFB8895
BE604ECE
3E1547D6
BE227667
BE44F611
BDCDAC59
BDEC2ADC
3E2CC000
BB8C802C
BB02F5E9
3E1A8019
3DBF4396
BD6251CC
BC830D51
BD4BA12B
3C5A044E
BDDFE7F6
3DFDD38F
3DBF3F15
BE9BEE78
BDB7398F
BE170836
BE3BB890
BD1D40D0
3E311D7C
BBB9055A
3D3A27C7
BE97E878
3E33E29E
3DEE6C46
BE34D988
3D6008DC
3BAE6AE2
3E170243
BE259360
3E759CEB
3D42118E
3E2CB56B
BE3D04E0
BD8E2632
BCAA4F3F
BE3B16D9
3CE8E3F5
BCCD0B7C
3D91F9C0
BE403FDC
BD4F124C
BE002CAB
3E5D0576
BE0E986D
3E3EDB20
BD8EC103
BE1A9EC1
3CE09854
BDC4278D
BCCAAEAA
3C18B5AE
BE19CCE5
3D6A6031
BE8E4CA5
BD3740FA
3DBAEAAA
3E1277E5
BCC4A7AA
3E85EA00
3C0868FA
3CF62363
3CDDCF59
BE35BEF5
BE1B087C
3DCA7ACC
BD9EFB9E
3D1B2F87
3E05CD96
3D736E21
3E62BE59
3E0883C4
BED5C12C
BDEC93C3
3CEBA459
3E063E30
3B7A1280
3DF0E545
3D9AB882
