BA732424
3E999880
BE5389EA
BDE77A40
BE8F5E55
BD121F8A
3D21DF99
BED2F76A
3DD785CB
3DE4FD7A
BE925EAA
BCA8C14F
3CDAF356
3EF2E165
BE55C01B
BDE6CF49
3E9ECCFB
3E962EE9
3F093CB3
3EE9B84B
3F0B690C
3E19AC53
BCA327B2
3E6C83EF
BD8AE7FF
3EF3086D
BE16327F
3D033405
3C80B999
BD0A46D1
3E8BDB54
BE1819B5
3C520E6B
BE385257
BE0345E4
3D62BB0F
BEF5AC8E
3E5AB264
BE32FB9F
3E16720B
3EE64BCE
3E2A35D4
BE9A717D
BE791B8E
3E722738
BE08A5A8
BDF29A25
BE96898C
BE5BB814
BE23DCC4
3E360F9D
3DEB3224
3DD2E88B
3E4D9231
BDFC18F1
3D27A8BE
3EAED84E
3EE2E079
BE38A4F8
BE0BBBA8
3D7BDFCD
BA96D36C
3EEBDC76
3CCCD8F1
3CC356ED
BC8E152C
3DAFE0B6
3E8AEC1F
BEB52E24
3DD8B552
BE56C8FD
3E003429
3D89B0E8
BC70877D
3D24D387
BDB3E813
BE03A7A6
BEE647F9
BD5585B9
BDA36ADC
3DD57B2F
3D8D0DF8
BDEBCEBC
BDDB5B5F
BABFC629
3BBE42B1
BE110B4C
BE8B1E9C
3ECBB6B2
BE79AF50
BEC042D4
3D885549
BE0EF0D5
3DD8B736
BEC3A7F4
BDAE5A6A
BCDA80C0
3E1E2236
BE0DFDD1
BEB25698
BEB6712C
BCC38B35
3EC5D683
BE99DB45
BE90586B
3E34C12A
3F136424
BEAE38FE
3DD0407E
BD553B94
BDBA27BF
3E08B25F
BE4FCA24
BED052E4
BC46E5D8
BD394F2C
3D5176E4
3E7530E6
3E6443CA
3E959CBF
3D90401C
3E10D510
3E43219C
BD9C724F
3D5F80E2
3D38CA24
BD96EAD0
BF06E075
