3DFADC1B
BF06C961
BD8FDEC1
BC80DD0A
BD14AF6D
3D31F83B
BE44070A
3EFB8956
BDBCE9A0
BDC9CFA1
3E336CDE
BDD22FC2
3C222458
BEA722A9
3E17BB27
BDBA40B1
BEAFA9EC
BF072981
BE83FFAC
BDC2D8C5
BEC85984
BE290956
3D1EDE3A
BD6AAAE4
BCF9A964
BE982064
BDC794B7
3E3BB895
BE7BECBC
3DFC54A6
BE1AC5A2
3D7B8E10
3E305DB5
BD345E9A
3CF22059
BE8164A2
3E8B7A41
3DE468A2
3EA48DEF
3E56B0CD
BE53E8CB
BE79E2C8
3E0E60B9
3C876BFA
BEDFD410
3D8F03B5
BD87DECD
3E3D4A5E
3DCB7C0F
3D457436
BE41104C
BEFD7504
3E326DE9
BE1E234F
BB2712FF
BD72CD9D
BE1F6BFA
BEDFEB5C
3E755CA7
3CCEFEE6
3D420A81
3EF15380
BE71F2AF
3D8095AB
BCE2878A
BDA40667
BD2B76AA
3E121D9A
3E744755
3E23CC08
BD4619A2
BE16EE32
BDB43BAD
BE1738D7
BE399E7F
BD1655A5
3BB8BB73
3DAD1B5D
BE30311C
3DF100D0
3E612498
BD7CA34C
BE9765C5
3EA4C2D5
BE39216C
BDA0529E
3DA7C5AA
3E4C5937
BDDE4A6B
3E1BC84B
3EF7C8D6
3E1EA2FB
BD00E337
3DF47BA4
3D9E6CF8
3E416903
BDBBB957
3E1A4674
3E870780
3DD3FCD7
3E1E53C3
BD1706D2
BE0C1799
BDDAEFC8
3E36B13D
3D85033E
BE0C3704
3EBCF14F
BE5746E1
BD5E9504
3DC9F6D0
BE1DBB20
3D067C4B
3E5A02C8
3DDB542B
3D9C58C4
BE803B04
BE526BE7
BE1AF5AE
BE1C70DD
3D92E2BF
3D055EDF
BDE78343
3E128097
BD72FE22
3E22412F
BE40669E
3DCB1ED5
