3E84AE44
3E04340E
3EAE5C6B
3E50BB5E
BE5D7944
3DF57488
3DD1C15F
3DE64C7B
3DE7EC6E
BE7127F0
3DAAB232
3D923ACB
BC1DC01A
BDE95DA3
BDAD344B
3F7544F8
3D8FE8AA
3E138E47
BE4D64B9
BCA44900
BDDBC591
BD853126
BDBEFBD8
BD737429
3DC763AC
BE705D3A
3DD6EB97
BD4BA95F
BE03C4CD
BD4AFB0F
BEA44652
3D603E0E
BE6A83DB
3D5744F0
BD9CEE64
BE5F9DD0
3EEB145D
BE79B3E3
BE94B448
BC382307
BE9929D6
3DAAAF5D
BDDD9F5B
3EFC64E9
BDC87371
3E846F27
3DDF11BA
3E118C20
3E3B750B
BDD5E505
3F1778C8
3DA6287F
BF0C1AE6
BD8300ED
BECF89D9
BD65C4B8
3D0A153D
BE94A7DD
BE023950
BDDBFBA8
3F12C4F4
BD886BC7
3D841B5C
3E7270D3
BD922446
BD7C53F9
3E97F674
BDAC1BBB
3E35CB0E
BDC1CB0C
BD22D979
3DCA131D
BE8931E5
3D5D043A
3DE051F1
BEB1F54D
BD2DACEA
BE08597F
3E943EFD
3D8B3570
BE558108
BE54FE9D
3E8E3A19
3AD5E57A
3E9596B3
3E9E2E26
BE52732C
3DB272CF
BE9182A3
3E6250EC
BE0EF29D
BE12FDA3
BEDBE1DD
B9C39DBE
BE49878C
3E75BF22
3DA24B4C
3D33DD8A
3E3A56EC
3E3B6F74
BCEB6AC2
3DDD3442
BED74DB6
3E86D499
3F060AE0
3D822A03
BE5B820D
BE6807E3
3BF743ED
BE4C83F9
BE3FCE25
BE1377DE
3D1DFF85
3E7BD9F4
BDC01B4E
BCA1E8D3
BE02A81B
BE64697D
3D9E11DE
BE77EC6B
BCDAC11C
3E11A433
BD8DA44C
BE6403BC
3DFD9425
BDB581D1
3E9350D9
3DF70FE7
