3E7ED858
BE457199
BE449CB6
3E2E1BF8
BD30C8D5
3D09C7DA
BE450AB2
BD1A397F
BF00C7C4
BDE6D454
3E705B48
3D6E2D70
3D971C82
BE32364A
BDCAEC91
BF1DA52C
BDB1228B
BE767935
3E0C19C7
BE969F19
BCF7321B
3E599BCB
3D9B89F8
BDBC8ACD
BCF4744C
3E913EDA
3D537C9A
BE39244D
BD321519
BD42AA53
3DC9313B
BDD6B39A
BE891601
3E7DAAF5
BEA0B9F0
3F051257
BEE40284
3EBED806
3BB91D18
BD215189
3EA26D3E
3E585732
3E58A5B4
BE5A2394
3D93EF1F
BC80D3FB
3D958293
BDE774B0
3D66C00D
3E1D82F6
BF04781E
3C0DFD2E
3F003413
3DE6D982
3DB1D2AA
BDB5341E
BE633836
3E9CACE0
3EB37FF0
3EA91C26
BEECD544
BE8FA490
BEED2F2A
3E113E27
3E6C4010
3EB8FD26
BE88D4C3
BEB0D5BB
BEC2E8E5
BD401516
3E4545EE
3E500B1D
BBCD489E
BEC841EF
BC8E16C9
3F09AE08
BE338148
3EAF0815
BDDC0641
BEB29A21
BDDBFDDD
BCD9103D
BEC208B7
3DFF1686
3DF64DEA
3D86C4BA
3D806D3A
3C4BBCC2
BC016B50
BE3B09E2
3E62CAA4
3E849491
3E6C5041
BD88A42A
3E937839
BEC40660
3E4F8E35
3990D268
BCF8E72D
BE5E765B
3D55264D
3E13FFD1
3EB4F124
3E3DC73E
BF28A8CC
BE9C063A
BE111F90
3DF405AA
BECB195F
3EDCA349
3EE2F6ED
3BD23369
3EC0248B
3C2852FB
BE2B35DC
3E706B64
BC9988E7
BD6D1509
BE6E2DCE
BE58521A
BE261EE5
3EAA9679
BCE3FD9B
3DD44F55
BE9A19DB
3E4D5140
BDC652CD
BD9959E3
