BE83DB14
BE8411D5
BE974F35
3E7EA5B9
3D9AF463
BE11BCE8
3C2C995B
BC9CFB99
BDC64B13
3DFF3664
3EBE189E
BEE02193
BD8C3CEB
3E66F1EA
3D08C6C3
BF0C5A5F
3DC6CBEE
3D9FD574
3D5956C1
3E33E127
BDD3C430
BD826377
BC876D47
BC446661
3D487B09
3DFC5E3A
BC0A6B89
BE6DCBB5
3E6424E0
BE2D7167
3D93F9C6
BCE83FD0
BD8B9E65
3D6B6D46
BE3D69E4
B9DCBFB3
BE9028E8
3E91761C
BD61EAD9
BE8832D4
3D8B879F
BB8109C0
3CEDB133
BE118AAE
3D0315A1
BE6867FC
3E3F3822
BE37BEAC
BEAB057A
3DB2700D
BE9E2735
3E2FD0A9
3EB3AE83
3DBF56A2
BC6220A7
BC8CE42A
BDA87114
3D6753CF
3E53D891
3DDE8FB3
BE1D9AC3
BE2E8501
3D7FA359
BE460775
BC0CED4E
3B2756F1
BDCDD735
3D9E21CF
3C1B1C66
3DCF275F
BDC89861
3C9F5617
3E3FA41A
3C62C821
BD0FFC52
3E7C80A9
3E2F3D71
3EB22A63
BDED61BF
3D94747D
3E901FB9
BE3C8BC3
BD92D5FB
BD7E3F9E
BE23A566
BE38DBC8
3E26AA3E
BD9A63BF
3EAD456F
BE67B3B1
3E0DC839
BCB58A61
3D9CFDE8
BD0A7580
3E7CE568
3B8B31A2
BCE024DE
3E4BDA28
BC7BD127
BE837973
BE9B9A70
3BF3B6C6
3EC3A946
BDA574AB
BE356187
3D86720B
3E4BDF56
3EB064C4
BDD294FD
3D91429A
BD0BDBD9
BCF9D509
BDE1F7ED
BD070245
BD252358
BDBB5B1B
BE2DF10E
BDD41B3F
3E8CF550
3E458C7D
3D934B06
BDD23342
3D633679
3E116AD6
3E019756
BE0790D8
BBB3EEC5
3C92855E
