3DE17EEE
BE16EDEE
BDA9490C
3EA45C3C
3C2B468A
BE2A8C7D
3DD18FF9
3D157116
BE0B0FC5
3D1CFB20
BCA20D06
BE506D73
3D3E2463
3DEF105D
3E29A662
BCF8E6A2
3E0CFA45
BE81309B
BE647084
3EACE38B
BDC61050
BE9591B1
BEB7ED78
3C6382DC
3E6F16E9
3E1D55A8
3E66F258
BCAA0AC0
BED402CC
396569A3
BCBF4413
BDC1A801
BDCB399D
3E0145EE
BE01CDFD
3E0A3A11
BE04F8AC
3EC27848
3DA6415B
BDAB131D
3E10C516
BD837B25
3BEC5A5C
BE00B043
BDE71DBE
BD821C90
BC917838
BDF9E8D5
398BB43A
BDA27AA8
BE3EE23D
BE86355B
3E90E0D7
3E2234F0
BDF78A51
BE255BB0
BEE1E96F
BE7D2C59
BDE8F975
3E1F86BF
BDFB1139
3D107208
BE322347
BDDF8A7A
3E79C37B
3E6C0A0E
BDBE2367
3D47DAC0
BE99E4AC
3E9CAAA8
BEC1AEFB
3D2A206A
BD0E3766
BE4731BA
3DF1466B
3D11DC59
3DA4D9EF
3E2BD266
3DA174D4
3C395E25
3C037436
BEB9E87E
3CCA0D8E
BD15FAA1
BE2C40BD
3D75D752
3EE3AF92
BEA1DE51
3E925A81
3DCB0CFC
3EA75C06
3E2D967C
BD8D9796
3E510805
3DF9483B
BE7D44BC
3DAEF58C
3E539CAF
3E40CD23
BD37BD00
BEA86F56
3DDDEE78
3CDE649F
3E9D4CB0
3D1BA8D8
3E74D8BC
3DA805B3
BE2DBA35
BEABE1FC
3E23C52B
BC7A83F5
BD6F16AE
BC9A3281
3D7C3E5D
BD7935BC
3D116205
BE0C365B
BE333E8A
3DE49F22
3E0602E7
3E581679
BD733600
BE90D6B7
BD8442D0
BE248F5C
3CB8DCC6
BE5EB4BD
BD64F560
