BEAE72FB
3E5730FC
3D824C71
3F0082CB
3E8B1B82
BCC4E4C1
BCD36548
3E346687
3EBAC3F1
3DC50186
3ED3578D
BED130F2
3DEE3744
BEE4792A
3EAE29C9
3EC39614
BDB2575C
3D738C35
BE8BA042
BE4F711A
BE6B88E0
BE2BD427
BEAC9927
BEC15AB0
3E4D9E5C
BEDBD431
3EE819F0
3DB88CF8
BB8288F1
3CB54485
BE4BB65C
BDAC538A
BCC220E7
3E01DF3C
3D1B9DAD
3DA036A6
3EEEE3D4
BF09F2A6
3D6B5CCB
BE3F9036
BE45BE9D
BE18900F
BDC667C9
3EBC7AEF
BE1DF9EA
3D63918A
3DCB8E3A
3E03AB58
3BB822B5
BE8E7D1E
3E719394
BD623836
BE5FCD8C
BE498293
3DB855BB
3E5AA57E
BF132949
BF0F10B3
BE62344B
BDA26AA0
3EEE8190
BC3D95A2
3CDED832
BE2A8F2D
BDE4C5A1
BE47E469
B934C52C
BE5A8266
3DCD6FDC
BDA9B316
3DD64767
BEEDFB5A
3DACF7CC
3ED951A0
BE0FC02D
BF0C5F4A
3C6D9422
3E8ACDEF
3E429515
3F0D8A83
BE2A9388
BC63947A
3B224E6A
BD0C7A4C
3E13BDB3
3DE01D43
3E893355
3E173714
BDF5FF9E
3E5186E1
3D9379B1
BEE1468B
BDA8FB21
3D6B6614
3EB7BEA0
3E95A083
BCBE0C75
BE1BEB40
3E6B4F54
3EAE21BC
3EA36FCD
BE9506E8
BF2EE1BC
3E882584
3F048B64
3E5EBBBF
BDFCA296
3E01D8A5
3EA8D636
3D3ABCD5
BD33A653
3CA2439C
BE26BC92
3E08F0FA
3C6B5A36
BEF4EC5E
BE9D642A
BE20A70E
BC46E329
BDDDB0B1
3DD8E6C5
BDE0C03B
BE0F4CFB
3C947E32
3E0C5ABE
3E7C1BF7
3E15444A
3EEEE6F7
