3E3C8FA6
BE241177
BE171DFF
BDE033A7
BE59A9A5
3E15FD5D
3D3AD8D7
BE569725
BE101A7C
BE18C203
3E18216A
3D1DA8D8
BE660672
3E1DDC7C
BE82ADD6
3E428CFA
3E4BCA5B
3E377913
BD3A6300
BCB0DA1D
BDBFB7B3
BE4A2982
3D80B98E
3E83F6C5
BD136565
BDD447CB
BDEB06CA
BE021B1F
3B9AEAD2
BE8838BE
BE75524C
3D939B39
3CA2758B
BD2BEAE2
3CDCF62B
BE1BB6C5
3EC0F5F9
3E5B0B1D
BE94FE2F
BECC3142
BEB4DF44
3DDD57B0
3ED3DE0D
3D734AFE
BD9CA539
BDAF0EB4
3E5FBE48
BE304834
BDD92193
3E89C74A
3D962E0F
3DE251E2
BE3CEEDC
3DCFFAA2
BE8D0C98
BD15274C
3E61339C
BD0A91E7
BDACA855
3E4999E9
BE6737E4
BE5BC0B4
BE015A0D
3E1A203F
BE5F5B21
BCCB9535
3D88BDB0
BE5340EE
3CABBC87
BE441CB6
BCD76532
3E8C3791
BCC06D73
BD242158
3E22F583
3E2035AA
3D904786
3E35997A
3E333F54
BE816C52
BE0E81D1
BEC204C0
3EC2EC39
3E40B2FB
BACC7C45
3D8DE46E
BD95F4C3
3E0AC69D
BE12B722
BC99D9CB
3DA09982
3DADE7F0
BEA495CF
BE116662
3CD6FD02
3E031041
3E2B8672
3E95F10F
BDB88ED5
3D39EAE3
BE5B50DE
3E739C1D
3D4E5657
3CA32E5E
3E625011
BDEFDD60
BE8CF9AC
BDE4F3FF
BEA87570
BD3DE1D3
BEB547C2
BEDA9504
3D689753
3E1975C0
BEBB2978
3DA512DC
3D9A5A2F
BE06252B
3E0E38EE
3D95D79F
3D537FF5
3E9BA765
3DD279B9
3D23F77C
BDDBFFC3
BEF5E53E
3D8BBA05
3DAF5FEF
