BE3F8C72
3EDF4A3C
3E552C58
3EAA0646
3CEFB10D
BBB8B8D9
3E1CC789
BED5F127
3E2CA14F
BCFE33D2
3EBF2798
BD93E3DD
3D9FEA9D
3D99BB02
BD7D0D8A
3D99BB6B
3E149388
3EDDF50A
3D59CCE0
BE48CDBB
3D4414E3
3EAA656E
BE848BAA
BEB46E41
3D361711
BD9484A3
3E90C86F
3E085D64
3DF59712
BF07B026
BD8ABD5A
BDC35248
BEBCD380
3E1E7E7D
BE91C07F
3F0B5FE1
3D8CFC8C
BEA9AB50
BE4C2A4E
BF0C3A5E
3D2A283D
3E9321B6
BE644964
3E3FECD1
3DA20FE9
BDBB99AC
BE17DA66
3A8202A4
3E5E6833
BE729A99
3B99A888
3F040E1E
BDA7ECC0
BE2F0FBF
3D8E0934
3DF65226
BE5204C2
3E720A93
BE4A1EC9
3E593CC9
3E5472B5
BF2775B8
BE8FD4A1
BCECC403
BE802855
3E291618
BDD9D8A0
BF224AE7
BE49ABAF
BEACE53F
3E9C63EC
3E1CC0A6
3D1E1E6E
3E3F2AE3
3D4C1B09
BDCED638
BE3C26D6
3EB991B4
3EF8C8D9
3CAA2B3D
BF332E55
BDAB8AF1
3E800F1A
BD8FD8B2
3EF375D1
3E13AD90
BE2D6823
3D38962C
BE967AC3
3D7FC78B
BE8D474F
BEBDEC2E
3E7E86E9
BE814CCF
3EE96726
BC74BCC0
3DAEA4C9
BEA42E9F
BE8754B4
3E4296B7
3E45F360
BDCAF06D
BE40FC12
3EBCC87D
3D8BE344
BE369A59
BEBFFE9D
BDC7B7B5
BD9036BD
3E77F9C3
3E3F2A36
BE083B74
3ED1B126
3D34607D
BF141AAE
BE8FDBDC
3E65BE7E
BDF0FFC3
BD0950D1
BE2AB448
BE66BFEE
3EBF474A
BD48B4CD
3D55FE7C
BE6D1DCF
3D956D8B
3F15F6E4
3DAEDEDB
