3EECD6E5
BDD2E947
3E6D973E
3E9066B6
BEC71B8D
3D5D5660
BD8BDB41
3E3B76FC
BE33E3D0
BF07600F
BC9129E4
3E153DC8
BDFB2BB3
3B93C1D4
BE48A7AF
3F3EA3E9
3D69E864
3CAB195D
BD72EB95
3D115B2A
BD994217
3E258CBE
3D891CC8
3D1D5F1E
3E118D50
BE1D5E52
BCD24EF2
BE4BE482
3C893086
3DB9C908
BE1C0508
3E0D0D3B
BE4840CE
3E940D05
BE0D1C15
BE229823
3E3929EB
BD23B7D2
BED3701B
BE0A487D
BDE8553A
3E23CBDD
3E26AA84
3E7668A9
BD96677A
3E96D49A
3EA2B787
3E1AB2CD
3DBC5290
3D64A6B9
3F0444B7
3D559EE1
BE8615C9
BD9E1636
BEF43ABD
BE4BB7FA
3E64ED40
3B5E220A
3E4B1658
3DD317F7
3ECBE5B0
BEA17691
BDC2944A
3E81145D
3DC1E6BD
BE022281
3EF0EB8D
3C1704DF
3E0A5CB4
BDDE7700
BDC26FC2
3EF082C3
BE1F2BB8
BC2B6162
3DE5AE19
3CA5677E
BE4AE3D4
3CAC4D46
3DEF6BF1
BEB66662
BD9F117B
BE306812
3D9799FD
3E8C612F
3E63F5EC
3E53FAB7
BE113C80
3E5A0516
BDEA3D14
3E4B7A36
3E0B466C
3E6D34EF
BEFE68DD
3DA6ECBC
BE730137
3E901CC2
3E80E753
3DF5673C
3D9F5109
3DDD2D99
3C5E6D74
3E966D20
3BD635ED
3E2B0C28
3E6405F5
3DA6071C
BDF935B1
3E07DA98
BE702C99
BDDEA435
BD8FA327
BE51D2F6
3DDD8313
3E0D00AE
3C2603EB
3E1F4FCF
BE130B4C
BEC6CA3A
3E5D2D00
BEC2AAA4
BE2BA8C3
3ED68FBE
BDDB6C9D
BDC316B4
3CA5D09A
3D5EA8AA
3DC9D8F7
3CB2EE34
