3DA1A7A2
3E3902BF
BE94ADB6
BD1EC2DE
3E00E899
3E82D551
BC41D8F1
3CCB03CA
3E9749F8
BE267808
BEB425AF
BED8FC48
BDF19216
BF0CF155
BD99D9B3
BDEEF00A
3E010629
BD48ADD2
BE91FBF4
BEAFB078
3E801D91
3E2E118E
3DC6D517
BEBFC99E
3E9F66EA
BD992405
3E8C8CFF
3DA72C8E
3DA1D3E8
BE363252
3F18AEE9
BE5D8547
BE4A94AD
BEC49B50
3E74160A
BD5E8D71
3D888596
BE589DA0
3D9EEEFE
BD4311CF
3E98FA6C
3D121FDF
BEDEB530
BC28CD6D
BD9E3920
BDD7FB48
BECE3554
3E3B9302
3E1C2312
BE04CCD9
BE9BA80E
BF0BD3F8
BE5E0BF9
3E9B5C85
3E22BC75
BF42D3CD
3EC45E3D
BD4366BB
BEF7D625
BD700D31
3DA5EA12
BD62ABF8
BE683846
3E573408
