BE8958BF
3E9AC5D3
3D0A08F3
3D5F90A7
3DF35DF7
BBFB3A73
BD42DC69
BE552865
3E5913C8
3D62DBF5
BDD55FAA
3CF49D76
3E56D201
3BEEDF31
3C3077F8
3DD8276F
BC9F1DD2
39B9EDB7
3D8ACBC1
BE3CF7C3
3EAEC84D
3EA1C36C
BE0EAB1A
BC97B13C
BD46FFFF
3E70F77A
BA948283
3E844838
3E09A756
BBE2721F
3E0435C5
BC9C4A8E
BD6AEF3D
BCE32E0D
3D2DBEB5
3DFEEC8F
BE7B325F
BE96C41A
3D19DC52
3E287EFB
3E8A482A
BD8EBA28
BEF5AF15
BE069BFD
3DB7DC40
BE05A495
BD99FB13
BBE9D88C
3D8AA08D
BEC82719
3E5D8F91
3DEF3C47
BD8E1572
BE491C99
3E04B20E
3DD78A8B
BD11DD65
3E2AA4D9
BE3FD56D
BE5FA4FF
3E822E0D
BD13CEED
3E5F8E6C
BE055213
3D809F7A
BDCA2879
3DAA325E
3D8CD837
3D59B5A9
BC2A2DD1
3E41C4B4
BE27C9A7
3D665A67
3E0D76FF
BC3BC965
BE95ED33
BDB1E597
BDA458D8
3DD7742D
3E9A046B
BE029796
3EAA8191
BE438CE3
BE07C8E9
3E112D81
BD00947A
BDD3840E
3D88F361
BC950AEA
BD99E628
BEAD38B8
BEABA4BA
3E34AB33
3D23D930
BE2DE801
3DC5CC4E
BE1BE0B7
BDDBB05E
BD33B3B7
3E09AD76
3CF6FB5F
BE8032BA
BDE442B8
BDE197A2
BC7EF80D
BA8DAF00
3E90D208
BE0862B0
3ED35FE8
3DCBBBD0
3D40E1DA
3E5B6ED8
BDCB85E9
BE5D096C
3E0A7BF8
BE7465B0
3C9488D2
3E9D0EBF
3DDA6160
BAC46AA9
BE59D166
BE38C01B
3CCB94FF
3D1E1234
3D796339
3EAC42D0
3DB7FB0D
BD94AC32
