BEBBF1BD
3E4F0213
3DAE8EA0
BF084DDC
3E30F809
BE01E613
BC838800
BE4E8BD0
BDA65256
3EA3EA72
BB727426
3E7594AB
3E5A8B22
3E1E5E97
3DC5002D
BF0561A9
BE0C94F5
BE0606E0
3E571435
BEBDC2F2
3E0BDB8F
3EA4409F
3F05F3D2
3CA6A144
3CEF6F29
3E248543
BE64DE8D
BD9FBB6A
3D263099
BE5C8776
3CAD3085
BD9DF38A
3EA16BDD
3C972216
3D795983
3E5661B1
BEA14667
BBECA25B
3E8D5589
3DD762FF
3C47FF28
BC5914AF
BDB0017D
BE970838
3D243F17
BD1B1FD1
BD853511
BD0F0318
BD0D45A7
3D8AF18B
BF07EA5F
3BC80A86
3EAA2641
3D005880
3EED68FF
3E8115D7
3DBE56FB
3E5BF6C5
3E83B3AB
BE28C8BC
BED95694
BC8317E2
BE29CA40
BE8460F9
BDCF3C85
3E42BC7B
BF12E0E2
BE0C762F
3E3AE558
3DF97593
3E7A9EFF
BE048697
BE0C54FF
BE964B22
BDD9A6A2
3F06B04C
BD6F8020
BD3066BB
BED713E3
3E343236
BD6C963B
3EBA07A8
BE106A4D
BB8B38D9
BE3958B7
BEBD5EDE
BDF67323
BD8DB15A
3DFD0C84
BEB233F7
BE8C9055
BE15A800
3ED9F120
BDF19788
3E624155
BEFA39A8
3D66EE2B
BED29183
BE9BB569
BDCCDBCE
3E7FE25B
BD891E42
3ECC20DB
BED1F5C5
BF2A4A6E
BE2CE064
3E1F7227
3DEC4C7A
3E92ECB6
3E6661D8
3E7123E0
3EB196D4
3DBD3CA0
BE93EC2D
3E167C2A
3DD3C820
3DE34777
3E96DC98
BEA084DE
3B1A2C67
BE49C183
BEDB2FC4
BD6219F6
3E64BFFC
BE88734A
3D9E102C
BE13B336
BC8F9FD0
