BE875426
3ECD7AA2
3EED3654
BC6AE490
3D5ADAC5
3DE9C180
BB9A9FD4
3E81594D
3E99D1A5
3D9693C0
3E146E8A
BD48E0CD
3C699CA7
BE8B3D72
3E919E56
3EF753EA
3AF43FAD
3D55BBCC
BE725AEB
BEEA7FD2
BD90D00C
3E296A7D
3E26E92C
BE509FBA
3E6A5BF2
BEFE58A9
3C8DBE64
3E262DF1
3E54CE44
BE314F08
BE6D6E86
3DF0CC86
3DFB9EAA
3E3137B4
3E18515D
3C2058A2
3F05D62C
BF31F531
BC29FE76
BE4BEA8E
BEA5E221
BE134DC9
BE6C85D2
3EC04304
BE058080
3D94670D
3D72D1F2
3EA12334
3DA786BE
BC8E9C6B
3EA39005
3D394706
BED6D752
BE53E3B4
3E0D1DF8
3DD4C630
BD2F67C2
BEA4C366
BDF3A4AF
BE4DEED0
3EF52B06
3D518195
3C8CAF6B
3B8F2D5A
BE7B8F2D
BE72DCB9
3D1278BF
BEAA38D2
3ED5ABCC
BE7E632D
3E831331
BE8E8C14
BE7C58C0
3E3EDDA8
BD5F1C0D
BE7B2065
BDB12A1E
3C6897C4
BDFDA394
3EFE7EB5
BE6EFC44
3E51EEAE
3DC30282
BD20C96E
3E3BE143
3D89F818
BE91964B
3E9985E3
BEABAA46
3D897685
BE01599A
BEF745B9
3D4EA5F6
BE110264
3E54B010
3E7A6A28
BC66CFD8
BEB05A85
BDA6D87B
3E9C4384
3F01C6AF
BE571CDC
BEE22F59
3D748B8B
3EE26255
BBD3B407
BE446408
3DC67E44
3EB783A7
BE04F40E
3D2FA8D5
3DDB2C0F
3DF5172D
3A86EE46
3CE846E1
BE946BB8
BD8A379D
BBC1DB57
BE3F75C0
BE8CCB09
BDCBCF5C
BECBFF9A
BD0744D8
3BDCB994
3DD22D1C
3E4374D2
3E8CF27B
3EDF8960
