BE9BEBE6
3E09470E
BD599321
BEB86F21
BAF451CC
BC35BA4C
BC6C49B5
BDC35FC9
3C6C2DF1
3E37B9AA
BE080F78
3C37B010
BD23172C
3DA94E25
BE446BC6
3CDCB71A
BDF82C26
3E940136
3ECB32CA
BD0E9D5A
3E6FF182
3E0F8BB1
3E45617A
3E1AF014
BEB560A3
3E643CCC
BE9BCA4C
3D50D776
3E9FF1FB
3DB00413
3E5E5A6A
BD3A496D
3E17C8FD
BED36E5B
3E3CB827
BE9EB97E
BD69656D
3C06EBFA
BDACA62E
3DF4D0A5
3DA06C04
BE001873
BE160CB6
BDFAD702
3E5BABC5
BE12F737
BDFF39E0
BDBC6B19
BE2F9F44
BE24D1BE
3E32C4D4
3E59DA14
BDDD89E9
BD808453
3D752358
3E31D8C6
3EF58F12
3EA1FB80
BDB50244
BD9D9181
BD4DDEF9
3E204AEC
3EFA71A1
BDCECD54
BCC0DAE7
BE3C1606
BC366379
3E53C568
3E2EEBB3
BE0B8D3A
3D9C1130
3E04C207
3E7BB04C
3E6A7ECA
BD5281D8
BE0FF18F
3D989E6A
BEB97019
BD309EB1
3DE12CFC
3E92B30F
3EA46AB8
BD41468E
BE24D44F
BD946828
BDB83C5C
BE510209
BC1A04B9
3E526783
BE8B1980
BEB52514
BD28597E
3D688A50
BDF2511A
BEB2A379
3E8148EA
BE92E16B
BD7E4C28
BE3BDB33
BDDF62C4
BE2EFA47
BE124568
3D9DADB4
BECEDF8E
3DB9999B
BDADE9D2
3E737E63
BE3CB078
3E62541D
BE5C897C
BE06C0E2
3E0C03FC
BEC635C1
BE214655
3D823553
3E35DB48
3CD4F51A
3DBDDE1A
3E3F6CA6
3E8F4296
BD016A33
BDF28A42
3E731ABB
BC27A2D1
3E9C1851
BC19B137
BD041E42
BDAB33B0
