3DBE5607
BEC3D461
BE274D55
BEDAB4C9
BEBFEFDD
3DC9AE63
BD125872
BD967916
BE78B6ED
BCB3347B
3D84F140
BE45C3C6
BE995BB3
3ED5B30D
BE13C01B
BE2B24A7
BC863381
3E3C65BE
3DCA0C4B
3E2E8191
BE343A1F
BDEA004B
3F22748C
3E56C045
3CBC448A
BE6EE7E3
BE3616A3
BE7E0E7B
BD6C7610
BE2239D0
BE22596F
3E68A755
3E450B02
BE59BB40
3E2FD77A
BF54DABB
3E888406
3EAA8458
BE280803
BE945497
BF10340C
BDBFA192
3EE90AC9
BDF1C092
BD8AA8BA
BE9BADAF
3F06266B
BE54E90E
BEC47D60
3F1307CA
BE1478A6
3E58F12D
BB7A3840
3E84AC23
BE82DF6E
3D7255A8
3F06C702
3D87B721
3DCDAD37
BA537406
BE532988
3DFD2D74
3C329B73
BC37CB53
BEE3A0C5
BEA7945D
3D91A130
3E965117
3EB5F344
BDD6F0B5
3DA68DF1
3EB8C184
3DB3190A
3E048DB4
3D5F77F5
3E790734
3E3291C2
3D64180D
BE957DF6
BE09F497
3E9B2EA2
BE4BEE3D
3E33D7B8
3E526AF9
BEB52E41
BE7AFE3A
BE4C03B6
BDBC5B67
3E771C7A
BE608812
3E8A1AE4
3E503D59
BEE310E9
BE4B36A5
BD997F9B
3DC1CF2C
BE3CE572
3F032D3E
BE978758
BE9E5BBA
BEDAB489
3E2CBE2F
3EEEE2BB
BF1BE7C6
3E156947
BE3C51EC
BD020A95
3EB675F7
BE939906
BE991539
BF01341B
BE45FACE
BE6EFB56
3D054C83
BE742292
3E3C6052
392A0884
BE0D902B
3E89BCD6
3EB2B2DE
3E9FBDB2
3C84F441
3E28CC44
3E91E1D3
3EBC55F7
BF15654F
BDBF3D3B
3C5EF421
