BE38BB50
3EE2F63E
3E3F9BF9
3D56D74D
3E767DD8
BC8F71D3
3DCFCB62
BE26471A
3D423A6D
3BAFF221
BDA1CEF6
3EAD574E
3E902DD0
BCB7EF3A
3E469831
BDC875A7
3E37D291
3E0F17AA
3DBA475B
BEB8842C
3E80909A
3EE7267E
BD2C795D
BE8DC99A
BCAD81DE
3DB0E90D
3DDDC687
BC9B7AD0
3E1AB9B2
BE5A68D2
3C80EB48
BD57ADC9
BDBEAF6F
3EBE1DA2
BE09AF9D
3F1C3D38
BEA9C8DF
BE9F923C
BD32B0A4
BD9A0DE0
3EAD36CA
3E82102A
BEA09344
BE0AFFCC
3E50C952
3D59F03C
BE534BA8
3E24CA2C
3E99BD10
BDAD2D87
BE27B0D0
3E46763F
BD434204
BDBF210B
3E871F60
BD12BC35
BE5706DC
3E9922C6
BDB4EE8C
3D4B66F1
3C292553
BE9EFFCE
BE9CA87D
BDCD3F22
BD563998
3E8D25BA
BE5787D0
BE9F26D2
BEA03B74
BDF1BE4E
3E2C48A0
BE0CB0CE
BE0CC859
BE12E60E
3CA243DD
3E4D1E6D
BE6F8805
BC34574B
3D60FF54
BD274D6F
BEFF35B4
3E9C94D7
BB1AEBE4
BE587C8F
3E76FBDB
3C11885E
BE3D7BF7
BD76B444
BE38B11F
BD00B110
BEBE753E
BE80BC3D
3EECBE13
BE2329E8
3E94F39A
BE8A0775
3E3825C3
BF052CAE
BE096DF1
3D05B414
3EB04D18
BE0E2D57
BDA10945
3EA98A10
BEC2A02D
BE38ADE3
3D0D1E5E
BDC90A4D
3E122845
3EABD727
3EE926B8
3E64840F
3EA679ED
BE545EAB
BDDAC4CE
3AA76509
3DD41106
3EA023ED
BEEF37EF
BE3EEB22
BEDD7D8B
BCF29046
BDB4888C
BD9205DA
BEBDC3F7
3EA3C92E
3E46AF99
3C7985A8
