3DEF155B
BEEB6B6D
BE621A95
3DA7040C
BD82863A
BDB5267C
BDF74EC2
BDBF309E
BEF24635
BDE8DAFF
3EFD7061
BDFC3C1F
BE2C35F8
3DD39DD8
3CDB9644
BEEF6733
BD289A28
BDC694C0
BE16347C
BD49817E
BE9A9851
BE93A7F5
3E031EC9
BB015987
BD0F6DFA
BE7EBBFD
3E09069F
BE849037
BD474E18
BE75BCFE
BE397719
3D1F941F
BCA7C561
3DB48624
BDAF1EB8
BD87369B
3D0E3811
3E7A6F43
BDAADA47
BEB7C5DE
BED3F336
3E028ACC
3F0CE393
BCC4792C
BDA23D90
BDCC4A70
3EA1F1AF
BE4087A3
BE867125
3EC0FE9F
BF09683C
3E1931D8
3E9C3B1F
3E81EDD3
BD86DF0B
BDE1FFA2
BE236837
BE0A4130
3EB6621F
3E9E630E
BF08E40F
BE8D1C83
BEC35D90
BDAA159F
BE905934
3E5BB83E
BE8B77E4
BEAE8B71
3D4366E0
BC90EE34
3D913C62
3E52F99A
3DFD45E6
BDF8B702
BBD49F29
3F046608
3DB7A520
3EF27CC5
BC182840
BD677502
3D493E60
BEBC22BE
3DA9B7A2
3E5B326F
BDBC288C
BDDD0D4F
3E0FD631
3D3953C1
BE131A07
BD83F06A
3EF51B35
3E8B7078
3E0BCAA9
BDE8AFE5
3EC98ED0
BB8F86B1
3D911C36
3E2A05B7
BE65E6DB
BDB9FD4E
BE359FB3
3E125657
3E56085C
3D7959BB
BDDDEA0F
BEB372D9
BE8CFB1A
3ED2BA82
BEFBEA04
3D931F3A
3DB37AC3
BEC13660
3DD03EC6
3E1608E9
BEB85384
3D156646
3D0F69C1
BE7C11CB
3D0DB5E1
BC646DF3
3E2C5D1B
3E141545
BCC6E77B
3EA5F65B
BE0EA0CA
BEBF971A
BD4676ED
3E69A149
