3DD95307
BEA211E9
BD84FC11
BE33891A
BE1E452E
3D3F7FFB
BE67E000
3E7833BF
3DCBF0B8
BCD9EFC6
BF2EF74D
3E5328BC
3E01995E
BD95CE03
BEDA4E0A
3E8AC17C
BE1A9CE4
BE898C64
3E0FE152
3E103532
3E464981
BC8D1F88
BE449D78
3EB9E0BC
BEA48C52
3E034F6F
BE6BD513
3EA0A2A0
BE9A64B4
3ED607DF
3E8CC232
BD42ED02
3CEA0629
BEEC146C
3E9595E6
BE624B74
B9CD32B0
3E74FE91
3E2974B7
3EC0DFCB
3E9924E0
BDE1F20C
BE5FF30D
3DB12F3A
BE4CF68F
3C660111
BE0D83A4
3C12BE89
BC3ADA7E
BE51E784
3EB103F8
BED6070C
BE1C9B20
BDC86D2B
BE169D58
BE2178B5
3EB46981
3D5873EA
BDB26F5E
BE3841D6
3DB7AE89
3F068C2E
3EBD6A7D
3DC3E01C
3EB3AF0B
BE6C94DB
3EC63453
3F09B433
3C8E4395
3E6BAC78
BE7DAC90
BC20876A
3E2DAE83
BDF431C2
BD03E2E1
BEBA4439
3D57221B
BF156176
3D681E4F
BE485D70
3EC2AC24
BC6624D8
BE86318A
3E56A13E
BD2F968B
BD015979
BD932569
BC8E7F54
3E09DBA0
3DFACF02
3DBBFB32
3E861981
BE6F206E
3E74A108
BF390760
3EA8A234
BE356E7D
3D4A9F77
3EAD36F0
3DC614F4
BE8E9691
3DA2F5CD
3D6FA804
BE349449
3E69748B
3E2436DA
3E880ACC
BDB4AC8C
3D116E7A
BE9DEE02
BDA6B1B8
3D610902
BE91A744
3D97A7D7
3E8B5C4B
3E819FB4
BDE461F6
3C5DD24E
3DDEAA42
3E674E7F
3CF39650
BC794A59
3E779CEA
BEA179EF
3E537A83
3E1BAAC2
BE833B4D
BEF3EA15
