3EE8F559
BECB22B9
3E2B42C2
3E53E656
BEB10A06
3E3C2E07
BD976563
3EA28A4E
BEAA7B45
BECC2BA7
BDB92E8D
3DF387AF
3C3CB3BB
BDA05F69
BE243F98
3ED78A9C
BD6F7056
BEC5109D
BDE8CD1E
BE112D44
BE1669A4
BC60E78C
3D1937A2
BD67E49B
3CD95333
BE87D2C0
BE14767B
BE53232D
BE38043E
3D943CE9
BE8385A0
3D8E00F1
BE97A998
3E507A8F
BDA9993A
BE37CE70
3E84E84F
3DEBAC3C
3AF1BF20
3D70F889
BD9A5225
3D0D6843
3EAF1BB8
3EAE0E24
BE53B688
3EC6093A
3E7CFEA6
3E5150EC
3DBC80D8
3E1A955C
3E7EDD09
BE160F56
3D378D88
3C8C3ABC
BEC6D8BD
BE30F8E2
3D94F8F9
BE406333
3E6D98CC
3BAEF1C5
3DD919A4
BE458DD1
BEBA7DBA
3EBA1713
3E65A833
3DB3FBFA
3E9283CF
3D3D1176
3E7615D0
BC63B5FD
BD77A518
3EA040D6
BE8494FC
BEA242D9
3DCE0016
3DBBF660
BE1C3697
3E55F857
3DDEC075
BED8945C
BE216F52
BE4E0C7D
BC125F63
3EB9340E
3D759853
3E2F62DE
BE113587
3E734A6C
BE262A7F
3E81E2D8
3EC156C3
3EB96E00
BE58DAB9
3C915EFD
BE48784A
3E51E54B
3E75A883
3EA5A3AC
3E13791E
3E391AFA
3DC38518
3EA3F1D1
3E37B704
3E437A6D
BD3B5DE2
3D188B01
BE6F5037
3E72BB54
BEF0F5CE
3C74485C
3C310922
BE0627B9
3E99974D
3EBB2C81
BCDA696E
3E713571
BE52DC54
BEBE9C99
BB8541B3
BECEEED7
BDB59930
3ECC6847
BCD6F418
BE084D1E
BE15F784
BDDC078B
BE555F29
3DACA0B6
