3CFF74AA
BEDCC4C2
BDCDBA47
3EFF65C2
3E58D70C
3CCEA4AE
BE46054F
3EAC107F
BE054EE7
BDFB867C
3F412EE4
BEDB4E8E
BE0E565F
BEB29719
3E629B0B
BD5613D1
BE008179
BDC76033
BECE9E7C
BEBD9FBE
BEF773F0
BED8BBB0
BCF886FA
BEC8148C
3CA24585
BF021D04
3EA5C31B
BE11080D
3CBAC69B
3CFD498A
BE6ED106
3BC4E522
BE508DFD
3E3C577E
BE773292
3A950DD1
3E93EF31
BD178F61
3C48DC52
BEE78D66
BEE9948D
3CE02EEF
3E90B74C
3EC258E9
BE15C5EE
BD8D2B6A
3E9F918B
BAB0F784
BDA100EE
3DEBBD53
BE05CF7A
BD961A36
BD164539
3D93559D
BDA2BB23
3D03E89D
BEDD7C8D
BF059EE8
3EA4207A
3E8271F3
3DD201F4
BE41A06B
BE483F42
3E0E897A
BDFA65E4
BDDFA12D
BCB3E2D9
BEC52E50
3E0CF576
BCB81A73
3DBBE126
BDA55E49
3DE2DE3B
3E82F01E
BDFB66D6
BCE76778
3E58633D
3F26BE79
3DF436B5
BB51CCE7
BE15FA9C
BE37EB8B
BE2A1E0E
3E02F03A
3DBFF1C0
3DEB5D62
3E278CCD
3ED93D12
BE8D0F09
3E4E27CB
3EEC55F6
BE33DAAB
BDAE1352
3D379426
3F0D7C8A
3E8A8382
3E438D40
3E0F153D
BCEAAB85
3E338DEA
3DB46997
BE1CFA3E
BE09CCEC
3E7273CA
3F06954C
BDE1F7EF
BEF45B34
3EEA7833
BE7C0D8B
BC2BA987
BCEDAC61
BE65C795
3DFA3D42
3F12A512
BE2A0D22
BE6911D9
BE46E0A8
BE8E8517
3DAD4CDE
BE8E47E4
3E627543
3E773F0F
BD4C133C
3DF41D3A
3E842DF5
3C9F64E5
3D9CB6AF
3F0EA6EB
