3EA268F0
BE82FD1C
BEAF30C2
3CC4ED2F
BD0788CB
3DE7213C
BDA25FA5
BE410AC5
BE1A10AA
BD8B4B80
BE7D5CD4
3DF0E35A
BD418E53
3D997D96
BE489E9F
BE7DD416
BCD9E3CC
3DFF2CA6
3E89F966
3D0E72D7
3CD93FE8
3CA80FCF
BE34B852
3E595449
BEBE91A7
3EBDA6C3
BDEF98E9
3D1544F3
BD9BB85D
BBC67A89
3D967190
BDF6E726
BE8F3C5B
BD85721E
BDF1B558
3DC39618
BED1A126
3ED9422B
BC4B4289
3D5D2AA6
3E5C6D73
3E6E2F83
3D9E60ED
BDC1DF90
3E4D0F4A
BE330FE6
BE25D352
BE407DEE
BA93DC9D
BC840F9A
BE7E9FD6
3D577E92
3D38166C
3E8E108C
3DAFE7B8
BE1F177B
3E2D3F96
3E949B23
3DFF17D4
3E8B7D75
BEA7357D
BE1121D3
BAFB6D1E
3E8297C6
3E7193A6
3EAF3EE6
3E0A6A2C
BDBCC0D2
BED27DC4
BD0CDFAA
3D68A9C5
3E8A9474
3E8AAB15
BE408AF7
3D9C039F
3EC1B82C
3D7DA4E9
BD9AB8EC
3E68456F
BEE8D041
BC94BBA0
BE36CCDE
BCEDCAC8
3B9B70DF
BCDD3585
3D3BCABC
3E19C99F
3CD1AB29
BDF9F854
BD385775
3E09468C
3E46692F
3DB8633E
3E53942A
BE37AAE8
BCE4EA35
3D7EB0C3
3DAFDAEC
BD22FC4F
BDF7F5EA
BE5BAFE2
3E2E102F
3E8A1569
3DA8A65F
BE92016B
BE514FFC
BE4BDD1A
BE89173F
BE53DC9D
3D9D5411
3D5EC235
BE2C43B8
BD79D1A8
3D50C2A6
BDFFECC2
3E9F38EB
3E73CF69
BCC0DA50
BE080795
BCEE561A
BDC58772
3ECFCD0F
3E71FF75
BDC87D78
BDD01948
BE28B29E
BB8D2B0C
BE9B0DD6
