BE1C2672
BDBF78C7
3CB7AC8F
BE2A8B84
BCF6B65B
BE133BC8
3DCC8E85
3E039083
3DA8622F
3E15303A
3CC5B9FE
BE99648F
3C87EA2F
3DA591A2
3E6981A1
BE1D66EA
BE3142F1
BE84DFEB
BDBC63A1
3E6C30FC
BDE0AB84
BE5D0B9F
3E1077F1
BDB741F1
3E65CEE1
BDED2462
BDD3024A
3D17448D
BCB0615C
3D970C91
BCC440FD
BCA00CB0
3E7197A1
BCD0FB96
3DE66D17
BE83BE33
BC316A36
BD39EA1F
3E2F6A90
3E218C78
BE274A57
BE843337
BE03673C
BE62AB63
3D712778
BE00ED68
3D4FC80F
BDBD35EA
BDFA46BB
BC11A8CA
BDF20217
BE64A050
BC826E1F
BD3B8ACB
3E03C422
3E1A17C6
BE2F9A5B
BE0599B8
BCD47476
BE0A7A5A
BE25E54B
3EB5DA39
3E12DC22
BE7E4266
BC857DDE
BE78ABFF
BE532562
3E28A162
3E9E77CC
3E7D0A45
BE2F34F2
BEB005FA
3D0B9278
3D60AB6F
BDFF416C
BE06738E
3E266BC5
BDE9F16F
BEA2D68D
3E71B27A
3E74B1B1
3DCF3B21
BE8DD56E
BE2CBA58
BDC5D432
BE80C489
3D27852A
BE4A36CD
3EC5F522
3B1023A4
3E006DF3
3D82891B
BC8EA86A
BD87C186
3D76EE1E
BDAE441D
BE09FF26
BC66C190
3D7D5B15
BDD5B055
BE12522C
BDB12CB9
3D3C691D
BE990368
BD94ED71
3E8239E0
3EADD925
3E78FCFE
3E15D469
BE0E6A9A
BD419ADD
3E15D686
BE92DA02
BCD18081
3E66D355
BE3508C6
BE60D66A
BD989313
3E5192F0
3E1342B6
3E6BEACC
BEE64C54
BE494F31
3E5F86BB
3D9AF9A6
BD1B5820
BEA8F060
BD8D4A28
