3D98726E
BEAEAB1F
BE9C2F5E
BE67D256
BD8C96DF
3CF6191C
BDC96412
3D88AB36
BE29CF72
3D8EAF8E
BECF2CA5
3E37F134
BE39B5B1
3E2A665D
BE2DACAC
3D7D2F2B
BDB4E733
3D9CA1A9
3D2A636E
3E883B1F
BD283EF1
BED91F59
BE06043E
3E965872
BE8D6197
BCE71ECD
3D186699
3E045353
BED56676
3E557723
3D7E0999
BD808658
3DABD199
BEE8C7CA
3E6AC895
BE775EE1
3E628549
3EAC53CF
3D977E78
BDB8C091
3D5B462F
BD2B0D2A
3E697F22
3DF43F16
BE3BC34E
BDE5B6D0
BE37122D
BE80A960
BE5FC232
3C079449
3DBF8071
BE6E97E9
3D5DFA6A
3E23B1E6
BC307A5C
BE081340
3DC4F4EA
3D0C5CC5
BE24DEAC
3BA55C70
BE16E9F2
3EA6B3FE
3E2C84E8
3DE95F71
BC06631C
BD939922
3E2F4CD6
3E2E142E
BE178FEC
3D008A57
BE2DF3FF
BDE9183A
3E5909FF
3D21C468
BD3E38F3
BE44EB96
3E2DE745
BE69BBB0
3E2D75E5
BE55350F
3E601E98
BE5A7331
3E0B47A7
3CFFE284
BE7105D5
BE1941A2
3E512333
BE0AC30B
BDEB60B4
3E6D2245
3E917B88
3E7FA914
BDC508BE
3E8A9AFF
BE7F8BD1
3DC7DDFB
BDBB8959
3E580509
3D0352F6
3DE32F62
BEC053D3
3DDC6368
BD040CBA
BDEA067B
3E8A91AA
BE1E5BAA
BD113174
BE850D2C
BE968935
BEB20098
BE9F7EA9
BE8FCA40
BD2C5018
3DE36F28
BE0FEDD6
3E23B1F8
3E027E84
3C05EC53
BAF07299
3E5C5BBC
3E46948D
BCCAB7C4
3D0736CB
BE35546A
3D988241
BE8DCF5D
BDC70366
BE42E024
