BED5831F
3F02AC52
3E488509
3E8C27F5
3D53679C
BD97DCB3
3E0E7FB4
BED6AFF2
3E8291FE
BDB0D263
3F09B230
BE9BE56A
BE6C4D2E
3EA905CB
3D2E3BBA
3E1083BE
3E76D9F6
3F327522
3DFA1DB0
BE8DC519
3D829CE0
3E5D0A6F
3E0FC49E
BE5C2A1D
BC20830D
BE6374A6
3E2D978A
BE4E11CE
3F0A9ED2
BEF1CDEA
BE977AFB
BE09C931
BE13B8E9
3DDFB0A3
BE879A96
BE11760C
3D320CB5
BEE8DBE1
BF10381C
BF442D4F
BEE10A8A
3E35198A
3D53DDEB
3E064629
3ED7EB06
BE561FB2
3EBFA0A3
BE2E9556
BE9C54ED
BD8AB5AF
3E11B25F
3F5272DB
BE11E5D4
BC8E085C
BDF7D1A7
3DFD3D49
3DFA7BB6
3E52D41D
BE45F2F6
3DBB27AD
3E8FEDD2
BF38B00E
3E08D5B7
BC8A0DEB
BF1A9B33
BE5A56C1
BC5C47DB
BEA5A604
3DE54062
BEEA28FA
3EE265DA
3E0F5F42
3E036E4B
3EE77F30
3E7722BD
3E5AAECF
3C53B43D
3EE36C85
3E87F71C
3DEC448F
BECA80B7
BD20B4B9
3EDFC9B4
BE36E937
3E98C686
3CAD9ACE
BEAE0238
3A90FFED
BE6B19CE
BE140159
BEEFF84A
BF108B20
BD1A9AAE
BEF92EBF
3F0307B0
3E6C4EFA
3D8B9650
BC9D9F60
BF044128
BE13897C
BCB212F8
BDAF465B
BDDFD14F
BDFA643B
3E9F68E3
BEB630E9
BE956256
3D2E9E66
3E573616
3E22D366
BE4B470C
BDAAA506
3D605D25
BDE0D9CA
BF0FDF9A
BEBF5FAE
3E9065D0
BD7332E0
3E4FEE75
BD3954EE
BDD9D008
3D135D9D
3DEB05C4
3E9C1061
3E6CAB9B
BE85BE1B
3F25F410
3EE7A0C5
