BBC51823
BEA399F7
BE9FFBC5
BE8F5F71
BD2FBF35
BD08DEC1
BE16DF9F
3D80702D
BE9C5A68
3E065183
BEB8E036
3DB39814
BD0CFEA6
3E13FF16
BE6C931F
BEF17960
BDBD50B3
BE41E0A9
3E9FDEF1
3E365B95
3DC27BCC
3D6C443C
3DCB2998
3D9FE713
BE240080
3EE1337C
BE38DDAA
BD7010BA
3D2A15A8
3E3390AE
3E987265
BBE72818
3E68C18A
BE7FFE50
3E1985FD
3DE18073
BECFF940
3EC03AF1
3E4D575B
3E86771D
3E78F53B
3C2C4CF0
3CC620FC
BE6CD6A5
BDE04599
BDA6EF9F
3D15C9EC
BDE005EB
BE118968
3D8B93DC
BE939F3E
BDCCD669
3E86A21D
3DFF9459
3D15798C
BCADEA39
3E3CB74D
3E80354D
3E5D2058
BDA3430E
BEDDFD25
3EA88AA0
3E1E608D
BE0C7B04
3E80DA4A
3CF94C72
BE2BBA6C
3EAB0755
BDF3FA9A
3E1C5ADA
BE30CB23
3E04FFB4
3D8AAB8C
BE1E4E17
BE0899E6
3E8E4015
3D826832
BE7F263D
BE5B6FFE
BE5CA28A
3EB952C5
3E330441
BE9D3E49
3DCD00A8
BE38E3FE
BE2F86E9
3D8E6028
BE207BAD
3E561F8E
BDE9EEA6
3CF23908
3E4AF58A
3DC433AF
3D5A9F12
BE8E6EA3
BE678DF8
BE08A68B
3D9DE462
3C4B90ED
BDEA8573
BDEBADFD
BD4E8051
3EEA80F7
BE84E5D3
BEEB31A1
BDBD89AF
3EB96F76
3DF0136E
BE0CF6A7
BDA6E3A6
3C87E207
3DCCAB20
BE02CA73
BDFE18F8
3E53159D
3E64579E
3D695601
3D818522
3DA1DDE2
3E9B14F7
BDB62325
BD3EB730
3E195282
3D247746
BDB837E9
3D164AC8
BEC424BC
BEF83E93
