BDD9EE1F
BD21F7C2
BE26F6D7
BE99835C
3DECDE89
BE2BEF8D
3CFF06E1
3DF40F94
BD3A010D
3E4B5BB3
BE57B3D6
BDB344D6
3E1073CB
3D82D329
3DB0B21A
BED1BAA9
BE231A72
BEBA833B
3D10F99D
3E2B04F2
3D174FEB
3DC95E23
3DE982C4
3DF42DF2
3C8B8809
3E87FBBC
BE280447
BD8A804D
BDF0F172
3E775B2A
3DB6FDE1
3DC88969
3EB21D4F
BDD05974
3D7B9CF2
3D26241D
BE947D28
3D700886
3EA1313C
3EF37BE7
3DA6C788
BDFA4D9C
BE872164
BE9D4A15
3C86E455
BDBD8CD1
BBFCEEA9
3D4CDDCC
3C20D1F4
BDF06390
BE71B522
BEB708A3
3E85F4C6
BDB7A904
3E7D81C5
3E0F9EC1
BD8F8A73
3DC1876B
3E1088CD
BE683987
BE8CA8CC
3EC83E63
3DF6655F
BE97FD32
3E19F148
3AB0CB39
BE8FD498
3E93CBCA
3DD0D481
3EAFA933
BE7B8EFF
BE866FAA
BC8179A8
BDE5AF73
BC408C98
BDA51E1F
3DDC3BA8
BE89EBF6
BEE79D08
3E0DBCC1
3ECDC949
3E7CD7EE
BEAD8D35
BE3227FD
BE327DD6
BE49E7C0
3E0FA053
BE5F59CB
3ECEBCEF
BE5BDB4D
BE1956A3
3E413CBC
3E4187F9
3DC1ED3A
BE4CDF38
BECF7A44
BDD8F511
BDDF214D
3E53660F
BE273DFC
3D10B1F1
BE10F079
3E6736CD
BE588451
BF034B56
3E45D314
3EA84978
3E160425
3D32E41F
3D637F0E
3E0EE9E9
3E8F4C5A
BE7A8837
BE86033E
3EBFF9BF
BD855A55
BE343AB8
3E3D0F82
BD6BA499
3DED0001
3DD3B5AD
BF095E4C
BCBB483B
3D80979A
BB216F51
3E009000
BEB6F117
BE395893
