BE0D3AD0
3E4045F0
3E0A144A
3E538E0F
BE0D131B
BC171A99
3DB77603
3C8FC108
3D5BCD99
BD49F618
BE0F4088
BD031297
3D3B5DF2
3DB43679
BCCB1BB2
BD59F86F
3E3348EC
3C1F887B
3E659F97
3E79F4DA
3E8F1029
3DFF0C49
3CBAAB8D
BD375F27
3DDA1B4A
3E3E4CE9
BDE206F1
3BD87F33
BC6C32CE
BD128855
3E133E74
3B832A6C
BE035098
3DB38685
BE482609
3DD2ED3E
BE9DACBF
BD5C96A8
BDFCCA34
3DF15F53
3E887094
BDA5B584
BE21F36B
BE3F1DFB
3E3351D4
3DBDD9B8
3D8C3F93
BE064A29
BD2F11DD
BE1502D7
3D4A54FE
BD151DA9
3E0441B6
BD0866AF
BDF20920
3DB6C7B9
3D974420
3E428A96
BBC074A5
BE02D994
3E25D48E
BE324320
3D2A62D2
BDAB1531
3E2FCDA4
BE19CBB6
BD1645C7
3E8238AD
3C3BF7D3
3E467B70
BE1572F2
3E01B42B
BE0F28A0
3D8DB855
3A6B6B1E
BD705075
BE38C63A
BB170D78
BE3E6E9B
3E0C7804
3D99B932
3E1C86EE
BE032608
BE1CBA99
3D864953
BB5E41EA
BE2C1BDF
BD1D2AA6
3E8907CE
BE661958
BE8C5F76
3D0CE8A9
BCE54E43
BD862F13
BDA8F5B1
BDC7BBC9
BD81F6D4
3DE7599B
BCBF40D8
BE6290E5
BE0D0FB0
3D36D504
3E87DC6E
BDA08A70
BE798DD2
3E58D4E2
3E900BF6
BDFEC171
3DA93A58
3D963206
3D993A90
3E90BC91
BD749195
BDED6ADF
3E2CAE14
BDFF43F5
BE4314EA
BC4B04AB
3E506A1E
3E1D2A1A
BDE978C2
BCC252E1
BD61325A
BD8B35FB
3D1BADA3
3E482874
BC80C994
BD2AF737
