BE36E0E8
3E77D442
3E6E18B3
BD3826B3
BDCE61BB
3D3497BD
3E1185EF
BBDD41BA
3E8CCD01
BE106CAB
3DEDE7ED
BE0965D8
BE4FF233
3CFAA258
BD4D859A
3F0E51F5
3E29BD93
3E5D8099
BDE9CB16
3E65096E
BB24EADC
BE5AC175
BD314A4A
3E0819A2
BC8E692A
BEA9AFA8
3E1BB18D
3D8F3137
BC909B13
3BFE3C4E
BE0A9A32
BD7971A6
3E092D8C
BDA3A862
3DC4CC78
BEFF93B0
3EF10464
BEACEB78
BE8B4D67
BE8B807A
BECA088D
BE0A3862
3D449302
3E5DD624
3CD68177
3D94FE31
3E60AB62
3D78DDB2
BE6DBD57
BDF5B0A2
3EC083A8
BCD70A4E
BED6443F
BD3B9943
BE33805D
3BC227D8
3C275691
BE23CF3B
BE306A80
BD9BC709
3EE1B9B0
BBD59CAA
3EA3666C
3D62D459
BEBDF8B8
BE916E06
3E675752
3DCE22AD
3E3E2A60
BE09D41F
BB8B93F2
BE29AEA4
BD06A2C4
3EB86644
BD913622
BE8A477A
3D4872CE
BD0B906C
3E0D271C
3E4593F9
3D50FDC5
BE1C7A79
3E710A04
BDFA3D5F
3DEE5BF7
BDA66BAE
3D36C89C
BB3516A3
BCA6FF99
3E6A6F36
BDF20FBC
BE6EC000
BED351F0
BC4383EF
BD42BF27
3E89DEDE
BD6D40FE
3E26E70A
3D0313EE
3E36CBBD
BE397345
BD2170A9
BEB4D6C8
BE459FCD
3F0FCD05
3D815C1D
BE121835
BE6D8407
3E5EB89E
BE8D3694
BEA62BBA
BE4DA986
BDEF75AD
3D037380
BDECEE8F
BDB17390
3D9C8217
BE803961
3EA0FE8B
3DD983FD
3E6A1E27
BE26AFEC
3CB0090D
3C95547B
3E9A322C
BE2BF063
3E5CE858
3E980C1C
