BE80626F
BE391B80
BE08B312
3D6A0446
BE0E2356
BCC67ECA
BE279E59
BD1F85ED
3CE83208
BB63B399
3EB60F17
BF30D403
BE62327B
3EC41203
BCCD38AD
BF06B141
BCC34B0E
3E31F39B
3EB1C215
3DDD3F5D
3DB8B20E
3CDB7485
3E961629
BCCE27D6
3D6E4977
3CF15502
BCBF5347
BE0D3973
3EEE6368
BE334795
BCC8ED04
3DDD6BF0
3E39569B
BE92EFA0
3C8F87AD
BF062B72
BDFCC6B9
3BEF93F4
BDCEF10B
BE8C7C95
BEA5E5C7
BE84F79E
BCA3114D
BE8F0835
3E8C0E7E
BF01B4F0
3EC79BFA
BE9A41AF
BEF7A7FA
3E2FAC35
BE38E41B
3E8F7146
3DD93F29
3E846E57
BE81566D
3DD312E1
3EBFB907
3E2F1138
BC4A70F2
3DB96B79
BD43CC7B
3D3BB65A
3EC56FF6
BE98E2EB
BE9B396A
BEED8201
BB41AF97
3E84595B
3ED19489
BDF1263B
3DF4D19A
BCB842B7
3EB8ACF6
3EF62F31
BDDAA79C
BC73D920
3D6A7D3F
3E539CD8
BE96B4EA
3EC7F098
3ED38509
3E5ABC05
BE7B6773
BE00FAC7
BE84D311
BDE9FE68
3D0DD3A0
BE47F05A
3EBAB5CE
BEF98E25
BE4F41DD
3D3221D3
BDD175B5
BDFA38AC
3D824957
3E8CE2A8
BE79EABA
3EFBB464
BE5ED57E
BECF430A
BE86D892
BE83933C
3EC62009
BF143683
3DF399A4
3DF12AB4
3E1E39B8
3ED2D1CE
3DB63B1C
BE0337A6
BED54229
3DC1412B
BEFE3525
BDD9B058
BCEAEEAC
BDFFEA76
BE332159
3D6F1326
3F304EF5
3F13AAF8
3E5D60C9
BEA554C8
3E000835
3ED640ED
3EFE7C3B
BE6DECB2
3CFD1D4D
3DDA0E6F
