BDF9DD03
3D95ACEC
3E660679
3E420AB2
3CE938C4
3CF5D5FB
3D81B241
3E805410
3DFE4058
BE1CEBA6
3E9A9CF9
BE0AC728
BDB488E8
BE8FDDAD
3D97181D
3E2C0788
3CEEDD2D
B87F8EBF
BE6EDB38
BE83DF16
BEB7FC64
BE4EDBE1
BE23E023
BE825883
3D0FFD84
BF04E6C2
3E4DD2D7
3DD1748A
BB1CA4E7
BDFE1C11
BE818893
3C01FAC1
BC37E33B
3DE8DB96
BDB318C9
3C8599A5
3EF02A02
BED3C9E5
3D9EF5A1
BEBBDF9E
BE9C10E0
3BF40372
3DFC886D
3E98B677
BEB54F9F
3D951610
BCA10482
3DD7AF60
3DB693A3
BD8D68E1
3E1A30D1
3DDB17F1
BE52CF5E
BE570AE7
BD48C554
3D789AC4
BE67DAC4
BEE550EE
BDEAD146
3CAD7F04
3E908027
BE0BC9BE
BE5B0F28
3D345783
BE3B1BE6
BE258208
3DACBC64
BEE7379E
3E2B4F13
BE6FD14E
3DDD6489
BD8EDEE7
BE2636E1
3E5927E5
BDCFE358
BE52E654
3CE70CDA
3ECBBBA2
3DB51448
3E5F0F3F
BE8C6EF4
BE02F5BE
3E633C81
3DD96E76
3E972911
3E089ADB
BD8098D4
3E7E5A59
BEF6BD0F
3EB77FA2
3E7A6E2B
BE77FCB1
BD69BF4C
BD7E2DA3
3D6D0B0B
3EAD2E45
BC0F9198
3D9BD92A
3DF32C5E
3E8C9AF6
3E6CB0CE
BD27F969
BEF170FF
3E2C4C86
3EEFE3DF
BDDC6FED
BED70199
3E0EEA83
BDA4F037
BD758CB5
3DEC5283
BE93004D
3E172E87
3EAF5ECD
BE7DD0B9
BDBBED75
BD833EBF
BE8D05C1
BDDBD3A9
BE901EEE
BD4D3F03
BAF119B3
BD63B227
3A5E174D
BD9DC1AB
BD9DF590
3E291F08
3ED5F176
