BE14D9BB
3AAAC05D
BC281411
BE877CC8
3D17E0D7
BE43DB7D
3DB4CCA2
BCDCFA0C
BDA8228E
3DE19463
3E3B7E46
BE554F1D
BE1B048D
3E3DA1F0
3E4403E4
BD3A6D9D
BD8764BA
BDA915E5
3D670664
3D5B8F18
BD8429A8
3D70B1B1
3EC48546
BDA12BDB
3E71FD93
BDC17657
BDF8833C
BDEAD799
3E0F1446
BBB9F30E
BE52E276
3D09544A
3E944EC2
3E078DEA
3BF8D8C4
BEA85B65
3E2C89D3
B90C2AC3
BC0099F9
BA8C67D8
BE6E836E
BDC5B257
3D893642
BD6711B5
BDFA80B1
3BB33D44
3E44AB44
BD2263FB
BE58180B
3E4F25A4
BDC536F1
BCBC7DBA
BC02F84D
3D6CFBEA
BD1F402F
3E0A9746
3DC3542B
BDB089B3
3DC4B429
BDE2F62A
BE557632
3DE5199C
BDCDADDB
BE12AA99
BE2AB627
BE0CA351
BE571B02
3CE9C87B
3EA74A73
3C9B79F4
BD865F64
BDBC5F27
BE07B81A
BDBF3BCE
BD9902CA
3E1C14FA
3D3A825D
3DA867B0
BE4BE603
3E7F6CAF
3E8E1823
3D25013F
3DFD7DAF
BD5E856F
BDEEB754
BE96D7C3
BD84843C
BE643608
3E8149B9
BDE433C4
3D0CF42A
3CE2B943
BE149441
BE3022F8
3E303223
BE473B21
BD9C3723
3DD93DB5
3CF25ACB
BE8B004C
BDF1980A
BDB151F1
3E1F39D9
BEB5823B
BE052805
3E23E87D
3E842A18
3E6D5765
BCF1B49E
3C0DD784
BE4BC13F
BDB56BBA
BDF779E7
3BCA33D6
3D8A20B7
BCE431C9
3D0C4A6B
3D864732
3DCAD99B
3E18DFE2
3D056E49
BEE38FDD
BD94D3E9
3E8726E0
3D90DAE7
BDF00C4E
BDE30EED
3BE0C01F
