BE90C32E
3F058BF7
3E681B7E
3D4C0B7F
3D926555
BDC488BD
3E749E2F
BE1AF67D
3E7A2532
3E1AA6DC
3E7BC880
BE197019
3E3B5C19
BD626BFB
3E981EAC
3E1A7D36
3E5B5825
3D670BD9
BE3D3A55
BD90762E
3D52456A
3E6F0F56
3E4AEF1C
BEA07CC5
3EC0C635
BE0683A1
3E542FE8
BE00143E
3E94C010
BE8BDEC6
BE2E23D5
3D9ABA1F
BADD2103
3EA4173C
BCC20325
3E8DE577
3E0E88F8
BEDFB464
BD1046CD
BE23BCCD
BE205864
BD9A80DE
BE64CE45
BE184717
3DE028F2
3BC7A0D3
3BC0427B
3DDAC9B5
3E1F8355
BD9353FA
3DA541FA
3E5A5AC4
BE30BCCC
BE524067
3E0B28AF
3E4B2659
BE9C2C46
3C2148BB
BE320501
BBEFA3FD
3DA7944E
BE824037
BD76ABEC
BE930118
BE7518AF
3DDE9BF5
BE814DA3
BEAE1FC5
BCC5F944
BB985724
3E151D07
BE5BBA8A
BE4B5700
3E07A2F9
3D1F67F8
BE12C41C
BC82A806
3E0160FD
BDB8F332
3E89955E
BE5419B4
3E24325D
3E53B92D
BE1F99A1
3CAB68AF
3D259A59
BE1EB9A6
BCE1CC6E
3C1687EC
BDAC595A
BE9C7D67
BE8CCDEF
3E55255A
BE9C7CFA
3EE51D21
BE99BBDF
3DE24F14
BEA1CBE2
BD4A413F
3DAC5B6A
3E820B81
BE66C097
BE1A56C6
3D417053
BDA16BEF
3DBDD716
3D0CF3CC
BC50422D
3EB93A37
3E6BA814
3E559F4F
3DE744D2
3E206AE4
BE1583A1
3D048DDC
BEA30650
3BC6A980
3E39E51C
BCDF840A
3CDFEA9C
BE50B1B3
BDED8C82
BE85ACA6
3E412DA2
BE2D0F7D
3D9A9F07
3E265E04
3EA2A55C
