BE989252
3DBC9BC7
BD8C323B
3E8F0ECD
3E8B8A34
BE6D4A99
BC5F7241
3DA11ED0
3E814D81
3DFAC4AD
3EB4AA6F
BEB0BED5
3E422B58
BE3E48BE
3ECF07A6
BE32F1EE
3CC85D0C
BD460436
BDA8FA3B
3DF1EA9C
BE102DCB
BE0EE8EC
BDDCC329
BEB0EEC8
3E35434F
BD97E4CB
3E763C06
BE33E2C6
BD9563E5
3D877B47
3E1277EB
BBB3942C
BD36E0C2
3DF23B3E
BE030BA5
3E096810
BE553F67
BB802247
3E30EFC6
3DBCA1C8
3D9869F9
BDB546B5
BE95D8A0
BE502751
3DB8ADA0
BCB19630
3BDBB0D6
3D12D324
3DB4F212
BE102A1A
BE210D58
BDAFE647
3DBDCD68
BD5526DE
3E16B1E4
3C989171
BEE2C7D8
BE9F4AE4
3D9ACDEB
BD47F021
3D23B084
3CE04F05
BD91A780
BE82AADD
3E11C878
3D97C519
BDAC0FAF
3BD4FD1D
BD6ADD16
3DE27C19
BE26C3FE
BEAF3A94
BB2C2B6D
3E22284A
BDE8A954
BD356316
3DF96D4B
3E719D3C
BE52621F
3E9A54BE
39B50B33
BDBCA876
BE8030B7
BEB1DA1A
BC4FA0E8
BD6DEE1A
3E636B88
BD934D9E
3E9EDAC8
BDC37465
BD8BD8CD
BDAA4C0B
3E2AC981
3DC04E06
3E837623
BE4E3D5D
3E3051C2
BE0C41DF
3D2E3C3E
BDD1DEC8
BB8305C4
BE22B00F
BE2178BB
3DC832E0
BE009132
3E870345
3E231874
3D8FB024
3E4CBA76
3D3B35A1
3E24FDCF
3DDC50AD
BB9AA5B3
BA5FE5AE
3E365BCF
BEC59CD9
BE5E6B8A
BC8AC820
3C892B37
BCFF5A59
3E2F2509
BE98C30C
BE82242F
3DC78BE7
BC5429E3
3E06714A
BDA94576
3DEEAA1A
