BEE9E6A2
3E0CC2DE
BE266CF5
BE941857
3E9F9D9E
BC80A303
3D3142FB
BE5DDF71
3DA2D869
3EBAA734
3E264F16
BD96BC14
3C97B80D
BD791F8C
3E7B405A
BF20FDA1
BE362C2E
3E3A4342
3E71BE5B
BDD7C91E
3E6E6D0E
3DD428A1
3E575505
3DB7BEAC
BE90DD85
3E9D42DA
3C522E8C
BD17E65B
3EC61E2A
3DB649C9
3E8068BB
BDEDF8DA
3E6B5A7F
BE7356F6
3E304716
3D888B77
BEE668CA
3E3E2EBC
3E3BC483
3E0819C1
3E7E769F
BDF4F7E4
BE86430B
BED6BFF8
3EC85793
BED29C2C
BDB4C176
BE15B040
BE0787E6
BDF3690F
BE80D204
3E752B92
3E06C40E
3E04F8BD
3EF0C53E
3E326126
3E1AE753
3EA47673
3DE7B803
BB99B32F
BEA21F3B
3E6E0E0F
3ED59C2D
BE672F22
BD59B49C
3D036DB1
BE4680A1
3D842728
BDAAC4B3
BBBE5F4C
3E8CD499
BE13D641
3ED97D50
3E80E21E
BE35650C
3E263F1B
3E1840CB
BDA20C7B
BE9BD593
3E90EEC6
3E85EEBF
3EEC2DCB
BE3609C8
BE857F80
BE46CA21
BE778767
3DFB9C8E
BE4F0628
3EBA5B7E
BED3FDE7
BEAB025A
BEAA6AEB
3ED16C67
BD24FF5B
3E4FED42
BDE46368
BE0CCECB
BE86E73C
BE0CCC59
BE4D2884
BD8EB2DB
BE945C23
3E8E9081
BEE9F1B2
BE868657
BDE5DBD3
3E213CDD
3DADCAF3
3ED7C426
BDFBAA2D
3CFD6B10
3E9EAEBD
BEC9E5A4
BE54A6CB
3E55ABC7
BD6A2C7F
3DD3ACA1
3EF378CE
BD82E59A
3E8D1A9B
3E1E03F8
BEBE9800
3DD7AE33
3E1D1C7B
3EAFD9C2
3C7EB01F
3CC8D06E
BDF642C1
