BE488025
BC429CFE
BD31C4D1
BE3E0339
3D1E53DE
BC4B7676
3DAEE092
3E24E6EA
3E6A5775
3E4F0878
BE811C14
BC9DA7D1
3E5F96C9
BDA49EF9
3DB9F27C
3E006CFD
BE3D84DD
BEAF9BA0
BE339004
3E721636
BD67C1B8
BE3030C0
BE34C3DE
BD012F8B
3D32D2D3
3D7E72CA
BE024C5A
3E719070
BE93146B
3E94B032
3DDE5BCE
3D85C1A4
3EA12CF9
BE4B61C4
3DE6A285
BD766654
3D049B1A
BD00901E
3EC8549B
3EC9BA80
3CCEF0D9
BE622E15
BE541AC4
BDF726AC
BE8FF853
3D85FA74
BD93B6D3
3E2452CE
3E0B0530
BDFE1426
3DD25A5F
BECA263B
BDD73750
BE253A27
3DFC38C8
3DD5AD2F
BC691B82
BE5B6B88
BD8782F6
BEA025C4
3DD4D5EE
3F1EFC58
3E25DDAB
BE8DB95E
3E10DD4B
BDBB62F9
BD7ABE9B
3EC02775
3E7A0DFD
3E5B35C6
BE82DF88
BECD9C23
3C6BA14E
BBF14D4A
BE32CBDC
BEAC2088
BADEA43B
BEA83F7A
BE60CDB9
3E7A3F5B
3EAA8602
3E0279AF
BE545249
BDA60419
BE1BDD60
BE3A0CA9
3DA6A29D
BD922142
3DDA736D
3DC8FE61
BD074BC4
3CE61CCA
BD07294F
3E2276FA
BE87DB14
BC56EE6F
BE20A9C6
3CC5FFCD
3EA6F3ED
3DFF688B
BD61D481
BE33D765
BE036961
BE4E51DD
3DC27C9E
3EA0BBA0
3EAFFC02
3C41AAA5
3E1997A0
BE45B7CF
3D4FB580
3E45AB37
BE466520
BB47DDA5
3ECF1E3E
BC27AA13
BE8DB45D
3E146884
BCEC6DA7
3E5F05E6
BD0738EF
BEECE73A
BCFC1A02
BE42662B
BC610569
3E8B68C2
BEAAB1DE
BE1BB22B
