3DC7D962
BD9FB606
3AFF39DC
BE0FC54F
BCDFD182
3E05C510
BE13B86F
BD53609D
BE7E9E78
3DA04C0E
BEC71484
3ED7584B
3DB2C354
BB848764
BE60A1B6
BE0B8958
BDDA62AF
BE064279
3D03D961
BDD12C3A
3E26A3C6
3D6A2D6E
BE3CF913
3E3CE86C
BE7F5671
3E76DAF6
BD0ACC95
3E0D1610
BE3D9C16
3DD9C0AF
3E853A48
BDB41DB3
3D04CACD
BD05C5C5
3DB832C7
3EAE459A
BDF4BECD
3D8EAA0A
3E288395
3E334E0C
3E951150
3E25E1EA
BCC6A4E0
BE13C67A
BDACAAF8
3D64D28A
BE3F6E9B
3CB36FC4
3E51753A
BD247395
BE2E80F0
BE8C5293
BAF73A5F
BCE71548
3E39554C
BE111D5D
BCA0323A
3E807FBB
3DAEF9F3
BD249774
BE0ECD58
3E24D61C
BDDAE2B7
3E12CFD1
3E577D09
3E84F602
BDF4DF38
3DB0D858
BEA18BF3
3D866768
BDAF0F5B
3D34836D
3B07BC77
BE9E1EC1
BE1BFD4A
3DF29DA4
BDDA39E8
BE1065A1
BDBFB331
BEB8AFC0
3C49D3BA
3C2A07E6
BDCC2CEE
3D33C430
BDAE0762
3A9E6835
3CFE5195
BD8F3EB7
BE130BBF
BCD6DE99
3D657D12
3DEA309B
3E56E606
3DBFA393
BE8A8F5A
BE7A5D31
BDFEEE5A
BE288A13
3D819807
BD03AC32
3DFD8C8B
3CE00442
3CD27DA1
3E310AEE
BE7A5291
BE2B4EE6
3E0000C9
BD1DFEB6
BDE1E9C1
3D91AAA2
3E4AFA28
BC291771
3E104462
BE13D321
3C4354D4
3EA43764
3DC4F3E2
3E3C2E19
BE896DA5
BD0B04E1
BE5D7AA4
3E8440C2
3D391194
BDB6454B
BE7BC5BF
3D03B597
BE28A70A
BEA1EF84
