BDB98BED
BDD9E267
3D241ACB
BD5C2D46
BD633FF5
3D888276
3CCFDCD1
BC267F4D
3C3686A7
BDA3E142
BCEBF433
3D7CE8DC
BD5FAFB6
3D85C6A9
BD83C545
BC9180F1
BDDDAF1A
3DB7B9ED
3CF9C27B
BC98BC92
3DC0DF60
3DCE938D
BC865F5C
3DC30D93
3C7E164B
BC1DF421
BC90E7B7
3BF28726
BD8D3E94
3CC0E684
BDAE9B36
3C2F26FB
BCB89455
3D1942FA
3D73EB30
BE16F7DE
3D2C0DAE
3B3D6D28
BDA8A93B
3D1BB98E
BD88D753
3CA653E2
3D7870F9
BD13072E
BC89C4EA
BD5785E1
BC8F55C8
3D38C529
BE040326
BD8B652E
3DEE0AA5
BD5C94A6
BDF8916D
BD8266C0
BDEEF9AD
BD24D743
BCF729F4
3D23056D
BCEB409B
3D15D822
3CC86B26
BE0247A9
3D83A2C3
3D92FF74
3B9E0765
BCBF3561
3D83C287
BC957454
BDCB1F13
BD6A359E
BD9748CF
3D21EE27
3DCD1E87
3C8A83A6
3D95B64C
BDAD4EF5
BD7B055C
BDC4B29F
BCC9A9B4
BD1E1306
3D4FFD30
3CD39BB0
3CF598D3
3D289E19
BC9BF0EA
BDB5A17D
3D450180
BD979D70
3BF4E99B
3D607397
3D93589F
3D59D717
BDFD0D40
3D3D8738
BDE3CC2C
3DF196AA
BD457858
3E046B26
BD9F27A9
BE0DFE37
BE283356
BB11E6B6
3DCDCA73
BC356D08
BBA63D7E
3D42D4A5
3DD38979
3BD22E34
BDA222E6
BDC8CC5C
BE0788C6
BD9462FA
BDAF2799
BDAACD89
3B08EB16
3DF638E0
BD32EAF9
BD8761A3
3DD5BA80
BC2CBB55
3D2DC587
3D50A3A2
3D6FBD2F
BDB2793D
3CC08D67
BCFC42CB
3D97B373
BCD56814
