3E9FA9A5
BDEA4C14
BD48F93E
3E5D3A23
3E02B907
3C9A60F5
BC455905
3E778185
BCD205CC
BD2A2B17
BD21943D
3E148F0A
BD4BFD9A
BE166844
3D5B2092
3E84C548
BDE03C29
BE67AAB2
BDF9853E
3DBB9F41
BE41AB96
BE6DEDCC
BEC33B91
BD937D28
3DD402A5
BD26068D
3E6C5E80
BDB90A75
BED0791F
3E9C8293
BCAEB87A
BD8AE2AE
BE67D0A9
3E2DE54C
BDF25180
3DB557CE
3DF47CA2
3DD82AA4
BE1D717F
3E578831
3D327C84
3B44C81C
BDBFCA3D
3E638E5E
BE0F84E4
3E3C5769
BE4F8F3C
BC330B25
3DA9F1E2
BE4E407C
3E5F8C56
BE677504
BDDFA68A
3C0CB921
3D3BF988
BE8A514C
BE84B8CD
BDD22A93
3C42FA51
BD67893C
3DCC6649
3D9A0029
BDAF1F55
3D8ED737
3E80E9CD
3E470403
3E833A85
3D6453F5
BE196502
3E275186
BE24E761
3D95DD72
BDF445C0
BE3A3E04
3C6436CC
BE834E0C
BC430EDE
BDE49681
3DB3095B
BE449212
3BF68B68
BEA98E18
BCC237FE
BE291B33
BDA216E0
3D97E355
3E3A23C7
3CF1D977
3DF87F6E
3E89A1E9
3CEEBF05
3D612C63
3D0528AC
3E5936D1
BCDC2AF9
BDC64408
3E1AFC86
BDBC095D
3E9D375C
BD511F78
3CF22E61
3C1B643F
BE87A90A
3E71FA62
3DB9BF2A
3E88C6DF
3919C26E
BE1E73F5
BC8B3B71
3C8EBC51
3D93B4DE
BE25C565
3C9231AB
3E45BDD2
3E3B2C41
BDC6E431
BBC0DF14
BDE0CB35
BD808174
BDAE44D0
3DCD7A16
3E520730
BE37E8FE
BEA23ECD
BD7DAA9B
3D0E07E3
BDDF351B
3D56FFB4
