BE08A4AC
3D3D8D54
BE066280
BD8AD5B8
BE811AFD
3E191DB1
BE47E71A
BEFF601C
BE36ED03
BE0DF76D
3E9EB308
BEADC73B
BDBD2E4D
3E69732B
BE26899C
BF0A4548
3D0391A5
3F207B5E
3EFE0183
BE51160C
3E86672A
3EF3FAB4
3EDF0EB6
BC955790
BE4E893F
3E8B39AD
BE790B22
BE13D38B
3F42941C
BEBB21A0
3D83FD5E
BD7DF3FC
BD84D0E9
BD3D78D2
BDCC69FD
BE7F67C1
BEA39C31
BDA3E80E
BE6BD565
BEDF269F
BE0940E1
3E5A5F30
3D977758
BDB4CFFD
3EF2A7B4
BED1C73D
3E83013D
BE71343B
BEA28EB1
3E014E9D
BE4A0AFC
3F4E3C6D
3DA679C3
3E0A0DE7
BDD35A60
3E37ADAD
3F15970F
3F0D483F
3E51BCB8
3E413905
BDDD79B3
BEB800D7
3EA03729
3C5A82D8
BEB67D82
BE1A84C5
3D7D2E6E
BE2BF402
3D7AD3D4
BEADD101
3F03F20D
3EF60E8F
3EB8EE32
3ECD78A8
3CE3F2FF
3EB66414
3D31C6BA
3E527E4F
BC912537
3D93F229
3D1BD4C3
3EBC9E3C
BD4D0790
BC643ECF
3E092462
3D95A814
BECE7104
3DE83949
BD29C27C
BEE0275E
BE9F0D70
BDB2C1EF
BDC3C633
BEBBFDE2
3CE7EF93
3E14D2BC
BE700384
3E13FFF1
BED29054
BEAA0296
BD1C3AEF
BD7770DD
3F07FEA1
BEAEE1E4
BE25868D
BEEAF5D0
3C117830
3EB00F4D
3DB7918A
BDEDC03E
BE3E370E
3D8A99DA
BE8A358E
BE5F972F
BEAC23E3
3CB98F73
3EB3FBC4
3E43C689
3E39FBCA
3E94ADFB
BDDE1096
3AEEEF0C
3E9C5E25
3E946E9F
3E92FA1F
BDE52923
3EBB57AD
BDB246C7
