3E8AB3F0
BE687BEE
BCDCAA10
BDAFAE91
BE6E4295
3E38E211
BD59B5E4
BC7C3769
BEBA8623
BE99EE56
BD408E63
3E7972A4
BE7BECD6
3E608F1B
BEB986EF
3D9C20BF
3E045C9D
3E82444A
3E6110A0
BD426934
3CA94249
3E413847
3E037795
3E8822B6
BE5BA4C5
BDCA5E02
BE6CEFE8
BDFAA4BB
3E09F154
BD1233E6
BDCF9C28
BDDA86A1
BE356116
BD51BE69
BC6F3171
BE7B08D1
3DD76E73
3E5A4FBC
BE0CA623
BE814826
3C18EBF5
3E66F17A
3EB54AAE
3E44D707
3D876D75
3C517243
3CAC4E5D
BD8889EF
BDC5B07E
3E89338A
BD32EBAB
3E8379E8
BE2725E2
3DF45025
BE95E7C8
BE3615AA
3EC28BBC
3EAFC872
3C4BCE4A
3E68AC05
BDEC5E4A
BE8F4383
BDBADA1A
3E9AA02C
BD8111AA
BD9711BA
3DC427A7
BD0F6DA4
BD804730
BE2F1A63
3E3024DE
3EF2A8AE
BDBF49F8
BD66D821
3E2B9E6D
3EA3E2F7
BD9B887A
BC8285E7
3E85BD80
BF0539E3
BE179618
BE33E1A1
3E682FD2
3E58CF00
3DE64CBB
3E433C9F
BE706940
3E4DBDB3
BE695C23
BD8F0FA4
3D7FFC6F
3E008851
BE990353
BDF3F381
BE39A2DF
3E05C5B9
3C882233
3DEDDD81
BE89DB20
BD9DBE57
BDC4584F
3DD55C86
3E8BD1C6
BD51588D
3D7B1B9D
BED94DDA
BE9D0813
3D045E46
BEA19AEE
BDDC0684
BE140814
BE8BE4CA
3E288F32
3D4D8D6C
BECA61B1
3E9BBBFF
3E9FBDAE
BDC24334
BDCF34B8
BD8BEE11
3CBB6663
3EA486A5
3E4A5EC7
BD177B16
3D682612
BE9E8B7F
3E56D975
BDB7B16E
