3C9D2001
3D735494
3E24477F
BE017118
BE3388CC
3DE93E8D
3C1A0A58
BDC77510
3D01F3B6
BD4D9D82
3E6DA683
BE186C6F
BE8D00E8
3E95A52B
BE357121
3E8192AE
3E22579D
3E88AD0C
3C773BA1
3BE1BF4D
BD323B77
3D1B3591
3E89B20D
3E020173
BD2AE76F
BE5BD93C
BCD3AE0D
BD8ED880
3E468599
BE275FBB
BE36256F
3C128B53
3D9EB1A9
3D35EFD1
3D20797D
BEB12263
3EA3DAC9
BE4B0572
BEBBAF74
BEA9E3FF
BEC2A9DC
3D1AC096
3DBCC5B2
3E08B7A9
3CC621C8
BDD3B707
3E397A33
3BF7E5EB
BE29A217
3E8D4675
3DEA8B6E
3E97A91D
BE6944F5
3DF16E59
BE890C04
3DAB11D0
3EAA59BF
3DD39BFB
BCA71314
BCB66C48
BC83FD35
BE6E226C
3C7B8857
3D7066EE
BE948DB5
BE5D0E3E
3E1F16DD
BE042960
3E54733E
BE79914B
3DD918B8
3EA397E1
BD9E00B6
3E1213B0
3D633029
BC84A795
3CD1E0BE
3DE6C62D
3E2E60CB
BD014502
BE401255
BE1BEB73
3EC5C865
BCCF3827
BD999231
3D7D90BA
BDDC6941
3DD8BA51
BE3165C5
BDAB3592
BE57B0AC
BD8D4E23
BEA891AF
BE7E5C73
3D4D7C0A
3E7B944E
3DF4DF0C
3E3C5841
BE8EE9CB
BDE41497
BDBDF583
3C11052B
BDD510CE
BC8F9600
3EC30C39
BE117D77
BE6FA014
BD4B1268
BB57387F
3CC7F8B2
BE593C10
BDE5F824
3DCBF662
3DB84D35
BEBC794E
BB591280
3E81C615
BE522EE5
3CE6E29D
BC65C679
3DD09A1F
3E2BD62B
3E23D555
BC58935F
3E19B366
BE9F6D56
3E9F6A25
3E806099
