3E8BFCCB
BE0DADFF
BDF1A874
BEA9B245
3DA7EAAB
3D644F1F
3C9CF717
3D94497A
BD9CAEF5
BD5B132F
BF1999E5
3EE30A3B
3C9A9C18
BDADBA2F
BE84AA10
3DF59345
BE2B0B45
BE818FC6
3DA382A5
3DE6D001
3BFC8993
BDCEFEAF
BE42D712
3E2B0743
BE6F2B28
3E69BFCF
BDE92FCA
3E3FC331
BEFDABD9
3E36B799
3DADF46B
BCF3FFA7
3D4DBF8C
BE84C78E
3D8B8845
3E20CA3B
BD9D33F6
3E972129
3EB5AAA5
3EC45762
3EB6B244
3DCD24D9
3D4FD5D4
BBA39C92
BE1E6FD2
3E61CA74
BEF85FBD
BD58AB6A
3E5CDAC1
BDD6C850
3AB154CC
BEDCBA31
3D4AD152
BD89ED9D
BC57A5CF
BE3A8F69
3D7BFBFA
BAB3034D
BDA180A5
BC7F0E48
BD78AFFA
3E80C4A8
BD744D8A
3E3F012D
3E15D86A
3E53E244
BC900AF4
3DEB20C5
BE4EF655
3DE785EF
BDDD6AB4
BE06AC09
BD2BBBB8
BEA8C1D6
3AD96D19
BE4A499F
3B350530
BF019A03
3D7488C6
BE9ECBEC
3AC2239F
BDB9AE10
BDB9BA3E
3E423F52
BDD8E937
3A3726F3
3D230B7E
3D63BD9A
BE1B81B8
3E3FE78F
3E5163BD
3E91B12C
3DD717F7
3E8EAB80
BEF3873F
BCEC9E09
BDFBAAE2
BE0EA03E
3E2FA410
3E416466
BD24E888
3D642E1D
BDBDD1C4
3D9191D7
3C8F1993
BD1CA59B
BDAB08CD
BEB2D70D
BE2CA197
BD5F5FFA
BC80C106
BD44FD86
3E807641
BA25CF07
3D7BB512
3EC27452
3D9EFD83
3D1EDA76
BE486033
3AED585E
BE0250F4
3DCDCB64
3E06BA10
BE50819C
BEA12DF2
3D6B20DB
BE837095
BEB27311
