BCCC63BC
3E1BEAA9
3E4F1876
BB3BFA98
BAF13790
BCF50C3C
3DB2FDF7
3D2B931C
3DF6DF0B
BD84C50A
BD63D6D7
3D5BD704
3BD7A69B
BD81A035
BA1B66CE
3CE79633
BBE0005B
BD4664EF
3E5ACC38
BDACD8D2
3E9970D3
3E927FA2
3D9D936D
BE284470
3D98FAA9
3DD35344
BE29C052
BE13770C
3E81F104
BD536AB6
3CA19612
BAC0AA55
BE295470
3E44F7AF
BE13771D
3E0B9313
BE8C95BA
3CF10C84
BE1A6E09
3E5C76E6
3E1EA567
BD827A2C
BDEB5D75
BDBF114D
3E89C7B9
3D4506D0
BC02E2F4
3E05645C
BCB2EC83
BE0E6CC9
BCBCFA2C
3D98AACD
3DD40262
BE275935
3D57EEA9
BD6D76A3
3E382881
3DBEE64D
3DE711D6
BE1CA81E
3E61D88D
BE50348D
BC937736
3D8C9CED
3E273603
BCEBB596
BC679A4E
3D935BBC
BDA4370E
3BD6C6E1
BD20920E
3E14B945
BD9FE909
3BBFC491
3D1B4AD4
3A936954
BDA03EBF
BB05D56D
BE367327
BDA5C557
BC6EA11C
3E305EBD
BDD7CF61
BD12469F
3DBCCDD9
3DAC70D3
BE2253FF
3CAA7DA2
3DF0A10A
BDDAEF2C
BEADFD37
3C885B23
3BBFA196
BD9D71E2
3CEDCC97
BE1DC10B
3DD0F425
BDB81C4D
BBBC641F
BE0A8B66
3DC53CC7
BD8A9BF8
3E78AC9D
BDD450BA
BE905209
3E04DC88
3E6E1F18
3CE243C2
3E25AC53
3B1F5B7A
3E1A0EBE
3E52CE02
BD52B4B0
BE44D0D3
3E3D96D3
BD911756
BABEDF62
3E1F4232
3E09280A
BDFCCDCA
BDC2CB50
BE1EB55E
BDF009C4
BD2CD315
3DF44FB6
3E08B5C3
3D0C7BE7
3BB54CBE
