BC03D99C
BD32C73D
BD154B7E
3CBAC1D0
3BED6DF8
BC05B6E0
BCC86C55
BD0CCCC4
BD2FFE44
BCB37589
BD26CD22
BB8781DE
3CECF8CB
BCFE7472
3CDB84ED
3D440E37
BB91FF84
BD065437
3D208709
BC08C780
3CC00814
3C33BB97
BD23449B
BCA31D5D
BCA50114
BD463630
3D2FC7AF
3CF0E530
3D1209A7
BD37B129
3D2F8962
BC2B8136
B9E460D3
3C5468FC
BD330FD6
3CF79C0F
3CB34D4F
3C62A149
BD0AAC86
3C5502B9
3D508E00
3D309AFC
3C9E92E7
3CE28013
BC435B0E
3D63FCDE
BD35F508
3D43513F
3C051004
3D1D118C
BCCB62D6
3D4AAFA9
3D39FD7E
3CD9793D
BCFB93BB
BCB70403
BA775F77
3D43FD06
BCE8AA77
3CAAEC44
3B8ACFFE
BCDDE359
3CAE0648
3CF07C75
3D46363A
BB53B0DD
3D11D30A
3D3BD621
3D6B2337
3C938793
3CD032CF
3D61DA4B
3D07F8DA
BCAC1E19
3CB91800
BC95B0D1
3C4FE5F9
3A871F07
3D4C23A7
BC4DBEE8
3BDB6D2F
3CE3C536
BB5BE41E
BBFFFE2A
BB54A8D2
BD3FB400
3C8913EA
BD25389F
3D40821D
3D154999
3C3BCACB
BC91A9FB
3DA218BF
3C8D944B
3D29C7C7
3DA31969
3D3EC686
3DCD1E83
3DC4CFDE
3D81C180
3DD563F0
3DB96DD9
3BC8A766
BCD7E41A
3D1B04DB
BC8D9372
BD27BDF5
BC1BE319
BC8673C9
BC4D94E8
BD240B65
BD33CD2B
3D365312
3BF7CB9C
3C8A455D
3C813A97
3D13B14D
BC0D730E
3D04F79D
BC4F9F73
3D78BE59
3DCA7C43
3D73F39B
3DF4D0C8
3E23C57F
3E031DE0
3E1C0217
3E0AED9A
3E09DE6B
3E04CFAA
3C07F029
3D10BE33
BCD86F23
BD796B30
BD9E6EB7
BD583829
BD2016DB
3C838C32
BB70EBF9
3C87D0C2
BB3784F6
3D19E6CB
3C3B489E
3CAF0E11
BD0BBC3F
BD499C65
BBD1413A
BC1E993E
3D05BC39
BCB819A6
3D40B649
3D20FB80
BD8D3E49
3DBD3BE7
3CF3DCF5
3D16A87B
3DE4DF0D
3DAE3D46
3DBC8436
3E32419B
3DCF84E5
3CE06AC9
BCFE8474
BD8FCA3D
BB8834B1
BC869E08
3BE684E8
BB7842B1
3C35311C
3C2BB2DD
3C87EDFB
BCA9A7F5
BCD4DE73
BCC6472D
3C8709AE
3D033956
BB3090B0
3BEDCDC0
BD18805F
BD26A8D7
BD55A1B1
397E1BED
3C74020A
3CCA8FF2
3D89C909
3C3E910C
3C93F34D
3DA14075
BCFB93F1
BDAE3EE9
BCB64248
BD783D63
BCC08A4C
BD0E5E32
3D1CA794
3CE0414E
BC9E1E3E
3BF78FF7
BCCB2811
BD060767
3A21AD43
BBBB579E
3D4C2CC7
3D8E5648
3D768688
BBB66AEF
BDC928DC
BC420331
3CF28F3D
3D01F633
3D1344EB
3D63FDE3
3D1A4A24
BC0BF228
3CC5A0FE
BD7E2202
BC9E0396
BDBFEE43
BDD1AAED
BE06EE36
BD8E8CE8
3CCDAADC
BD776F73
BD409F1C
BD07AFB8
BD317840
BD446350
BD422719
3D6ADBFF
3D141D80
3C46AE6C
3D8B08C7
38D841B7
BCFB9CD8
3C4E5C49
BC21D19A
BCED525A
BC2E8F90
BD424F7A
3C84E773
3DBE8C92
3A0675AE
BDCB7518
BCEFFAF9
BCFFBE05
BDE85B48
BDB7E537
BD85B6AB
BDFAF313
BD182758
3C8F637E
BCE5FF61
BD27B5CB
BD1C5132
3D3EF55F
BC206BDD
BCDDF7C6
BC5B9FC1
3B447E6B
3D3495ED
3D9C8815
BD1C5DF9
3D80164D
BC96269F
3BD99CDB
BD55177A
BB641459
3C584041
BCDE0864
BD29ADC3
BDC37D36
BCF7D1E7
BDD8C6D8
BDC64D94
BD83BEA9
BC8BBF18
BC5CF747
BB11AB24
3BFB2AD3
3D2F5AB8
3C8C2455
BBA5BBB8
3C676A24
BCCAE87E
3CEEFA46
3D2213D8
3DA4DF00
3E3581A8
3D5EF773
BA1BB787
3C252604
3D10C8F1
BCB14E70
3D9C28E0
3D4EE5E1
BBE72719
BCB419E3
3C9A63EC
3C6D02A6
BDAB2428
BCF0BC65
BC3CB176
3C69FDCF
3DB8F752
BB93F1E5
3CB2B39A
3D18EE2A
3C17D8A0
BD043B13
BC2E3868
3BD23A6A
BCE24C06
39B84C70
3D30C449
3E1216A3
3E012033
BCB25E4B
BDBB7A9D
BDA64CE7
BD29E75C
BCAD4833
3E0B89B4
3DC8AB83
BD078408
3CD4396B
3CDC8434
3D4B5591
3D6E0570
BCAD2464
3D7665D1
BB7C4BD2
3DD54F63
3D6811B4
3D5C1A2E
3D091C93
BCE3EB29
3D42DC96
3D126FF8
BB492B2B
3C9F6790
BCDC37D9
3D6ECF12
3DD4B8DD
3DA2113F
BD083F3E
BDA1FC87
BD35242E
BDBDD0C6
3D3CE436
3DC1046D
3E013604
BCEBEF4F
BD10CE2F
3D97642A
BB01820C
3DC3E8DD
3D068BD3
3D7F5A3B
3CF31211
3DF0C2FD
3DD578CF
3C9DF582
3C17111B
3AE38C8E
BC8B1734
3CFE03EA
3D2824FB
BBE83B21
BD2A4038
3D852F79
3D959A64
BBBC013A
BD363B9D
BD69381D
BD5BBB53
3C4FCE49
3D7048F4
3DE5ADD6
BD774BFD
BE0D98B4
3AD85EA1
3BBC0A3E
3C86CBA3
3DCD04F3
3D4DC88D
3D99B444
3D678FED
3D94224E
3DCB292B
3D8E8AE8
3CB242BA
BCB21E8C
BC9CC30F
3D2DDD08
3BCD131F
BD3DFBEE
BD592DC4
3C80AE70
3DB13067
BCB7B84D
BD7EBA5F
BDF2B2C9
BA580417
3D9834CD
3D057F1D
3DA5BCBE
BD85BB99
BE110A0E
BDCD2D80
BB140675
3BAE0217
3D736F8A
3D26BC2E
3DAFB8F1
3DD7B700
3DEC5421
3D46EF38
3C39EDF6
3CA2E702
BC209494
BC9DC835
3D05646C
BD0A3262
BD06A587
3CC5C2A3
3D0710FB
3D090C96
3CD9F196
BC91C166
BD84C98E
3CA37394
3D9A5BD9
3C42C9D0
3C3C33EF
BD6B3EEA
BE358ECC
BD1A7E8E
BDBFE81F
3CA584E5
3D8C9529
3D81BF4E
3CB9BB31
3CBD7221
3D5A7D47
3DBE1881
3D6E0B63
3C9C7D76
3B84291D
3D1D6442
3C0B94D8
3C953886
3C773143
3D349EF7
3D5CB107
3C277D1B
BD861C44
BC0A763C
BCFEB80B
3D76BD99
3D4750D7
BD8C05B5
BE061436
BD0B7786
BDD7BE49
BDCD752B
BD948DFB
3DD241AF
3D953E3E
3D82A52C
3DD94902
3D4002A6
3E15CD13
3DF2610E
3D8DB1B3
3D109E18
3D30D5A1
3B1282F2
3BE92B92
3C0E131C
3B1A94A9
3DB4F6F5
3DE34838
3D496BF2
3D2B493A
3C4E7A5C
3CE3AAF9
3CD5059C
3D1CF4C8
BC8228D4
BD4AF300
BDB177B0
BD9C05D3
BD37DBC8
3D163C76
3D93BF94
3E46E4FE
3E09BAA2
3E071FB7
3E15F72B
3E07A31E
3DBE3339
3D98CC31
3D7BD042
3C09AB67
3D0140AA
3BCE6438
3CEDF88D
3D209CED
3DEF5842
3D3BE7C6
3DBE154D
3E3153F1
3E339F17
3E5A0523
3E314807
3DA569A7
3D6538B5
BCC9EB2C
BD33ED18
BD278513
BD22F90B
3DB6AA13
3E34F388
3E3DFFB9
3DEF5927
3DC658CC
3E4983C3
3E45102C
3DE0A49A
BAEDFD38
BD22690C
BC52FCE6
3CB04267
3C805362
3CBCE14C
3C4224B2
3DC4A3ED
3DDD93EB
3E11375F
3E056A2C
3E3DC34A
3E765378
3E1AA892
3E0868F6
3D77F9C6
3D82D843
BD93464A
B91EC4F8
BCAC4B00
3E07BABF
3E3CCEB8
3E2F4AE5
3E222FE4
3E08CEC2
3E43A1E7
3E2C36BE
3DA4E242
3D6AC452
BD104BEB
BC2A412D
BD209572
BD20595E
BC86F451
3D24C9A2
3D83563C
3DC7C72C
3E221B55
3E4AA64A
3E0AFCC7
3E042BC1
3E3BAB7F
3E023152
3D8ABF6A
BC4D700C
BD8BCCAA
BD3C0FAC
BCDA1AFE
3E0E5C58
3E7E9002
3E6E400B
3E20224D
3E3831E5
3DE644C5
3E01DCCC
3D696F1A
BA0788FF
BD03E02E
3BAECDAF
3CD8EC57
BAA31FB2
3D01EAB1
3D809039
3D893A2B
3E0B467B
3E113CFE
3DAFD14A
BC0E0E27
3D0892DB
BBEF77E0
3BC3EA18
BD8591D1
3A4B4A92
3D343FC2
398AE982
3E1BDA61
3E2D9D79
3E6787C5
3E434035
3DC5A367
3DA9B632
3E009C85
3D2A8ACB
3CF27642
BCFF6092
3D20FA1C
3B72B163
3CFA600F
3CC6B58D
BC3AB9D7
3D67A131
BC2DD6BA
3D5A4DB7
BB5FEC77
BCCDC1D6
BD186A26
BCE42BB6
BE2B2415
BDC3EEBF
BD430DB3
BD0E192E
3BAC2B34
3DC5A592
3E38E1AE
3E20EA79
3E0BC769
3E146332
3D88DFC4
3DB6B4E8
3DCCD416
3BDFA285
3C29B0B3
BC67172D
BCE65D37
3D40D18E
BB0E98DE
3D29EC30
BBBABBA5
3B04C46C
39339B23
BCBDAAFF
BCF285FA
BDB98C7A
BDA55078
BCDA5F04
BDEE3D91
BD97CF48
BCC2E1E2
3C2D7F6B
BD3614DD
3C7820A2
3D54261D
3E29228F
3E024939
3E016DE2
3D95097B
3D311730
3D09E328
3D6290C0
BC3F77A3
3D311D8D
BC802187
3C8CCD37
BD394D01
3D39E94C
BCAB5859
3CD77F7A
BCDF96D1
BDC6C938
BD7888AB
BD7F5A85
BD5EAE5C
3C8CE45E
BD6733DE
BDF57F57
BC890311
3CE0F154
3D0EB419
3DA7F9A2
3E0DF295
3E2BB6E1
3E2D8C92
3DC8ABC4
3B361595
3C9DB788
3C97511A
3D0066F2
BC91805F
3CD624D2
3D0FD54A
BD3FD1B4
BD17B291
BD37EA44
BC191199
3D38C8AC
3C776EF4
BD8B3778
BD44CAA0
BD5D57C0
BD15D9A0
3C69C649
BC02C8D1
BC345F56
3CF7AE82
3D2CEFD0
3D20B20D
BBF3B04E
3C11F84B
3D8C038B
BC1E4468
3D941035
3D0DCF60
3C53B2B8
3C29AD6D
BC81CF03
BD2628EB
BC703D8A
3CC0891D
BD29FE20
3C9D2D71
BCA683DF
3C7B92F0
BC21047B
3B39793F
BD6745A2
BD36FD5F
BD31AC9C
BD8D527F
3AD5521B
BCF0DEB2
3C42C3E1
B9E1A2C9
BC905E2E
BCCF0C44
BCFB0CD0
BD4CBF75
BD2FF3C9
BABEAA98
BD4E53E0
3C985363
BCE0C9E7
BB378141
BC956F6D
3A675F25
BD3B7626
BC5A8F39
BC6241E0
BB3C1CD8
BCC8B875
3D434556
BD3D3534
BCE18B87
3D40B7AF
3C0B4222
BC870689
3C17FB4A
BC8EE7E6
BD4A9232
3CD78662
BD4CCF6B
BAFAB105
BD37F9D6
BC846150
3D36C7C1
BD2CA5FE
3C1C3745
BC9387FE
BBDEEED7
3D36B632
BD232401
BC146293
BD3EF61D
BD3EFF05
3A2425D1
3C20350B
3CAF0B90
3B642773
BCAF6F98
3CD83DFF
3C4B828F
3C3968E6
BCBCF35C
BD07F6F5
BCD7744B
3BC05C85
3D20BCBB
BBB197D8
381F7E97
BD122F7A
3B9DC8B8
3D04D237
BD4080C7
3D08FFA0
BCD38480
3D430366
3C36C1D9
3D2D17F7
BCFA56B6
BCB701AE
BCF19413
BB17F9AB
3C346DA2
BCC37F21
3D0AFC08
BD0C070B
3D12F1E0
BCABB6F4
3D00DF2F
BCB123E3
BC105299
BD03212B
BCA676C2
BD293A6C
BD1C1717
BC3ECC95
BD8AA5DC
BCADC262
BC84A2E8
BD3C0CF8
3CE5150A
BB2FA4EE
3CB5F211
3C12DE39
3C779A97
3D028869
BC981CCD
B98C33DA
BCA920BF
BD276DE2
3CCEE887
BCE609AD
3D1480CC
3C78330A
3AF0EB0D
3CE1DAE4
3B526105
3CD153D4
3C2F5845
BC5B3BDD
BC32C49F
BD55091F
BD7CD820
BE023ED3
BDA7B653
BDC06C41
BD8E0FBF
BD7D32E1
BD225502
BD3FAB99
3B0E7241
BCEBF211
3BA18B77
3C93F578
BC4201AA
BD69C92B
BC85D69A
3CB0856B
BCE9334D
BD0448CC
3C43E2AE
3C9AEAF6
BD0491AC
3BA311A2
38F0D1FF
BCAFF2A2
BD84D97F
BD4DD55F
BDA0D889
BE033C9E
BDD5E9EE
BE622CBA
BE314DF3
BE498553
BE473B0A
BE169879
BE065D99
BCED0282
BD310E8C
BD975587
BCEA7BCD
BD230784
3D1408EF
BD8BDA45
BD732F0F
3CA7E8A9
BC4572D8
3C5CEDB5
3D1BDD41
BB018E49
BD258B64
3D3D2D68
3CED3CB0
BC8A96E9
BD513070
BD4FF1EB
BE1F06D5
BE6611CD
BE2F1DD8
BE15B1A8
BDA27EA0
BD3F84FE
BDB45FF0
BE10B44E
BE380D2A
BDA15B27
BD290ADE
BE070520
BD542287
3CFFF0E0
3D579402
3D075E1A
3C800CE7
BCC806FF
BC101B00
BC5D608A
3CD7BEB4
BCE2901E
BCDD1B5E
BD3F820B
BCEB575F
BD02679B
BAC07299
BD61DF27
BCB3E931
BCA63A2F
BD67A617
3E1CD936
3E318551
3D50BD56
3D45A91A
BD1DBAF7
BD5A0944
BD11CF70
BD884B0E
BE17344F
BDFC8D31
BDB15183
3D99317F
3D95AD5D
3A68C99B
BC758FCE
3B8AF2CA
BD147A08
BD23480C
3C808B91
BD34C609
3C6722D5
391A82F5
BC371966
3CE2DA21
3CE9118F
3E056275
3E1A44CF
3E4DE108
3DFD175C
3E365665
3DFFBED5
3D5087AB
3D278BD6
3DB38A46
3E39EABE
3DE5208D
3D88FC43
3D7E6E60
3D6F172E
3DFCAA31
3E39347D
3DCD7823
3D95423E
3CA384E5
3C90B652
3CAB07F7
3C26C9E4
3D340527
BCADB7C1
BDBCE624
BD3506DA
3D8FDEA4
3DFCAE40
3E43BBC9
3E40B6C0
3E38D6E2
3D279664
3DBC929A
3D3D28EB
BCFA1487
3D88F689
3E001AE0
3E66DD0E
3E617CCC
3E23356C
3E236263
3E36AC4D
3E51B970
3EB63C5F
3E474658
3DB20FD1
3D52C3FC
3CEDE4F2
BBAE65BA
BD3186BC
3B19F9C3
BD10A0BA
BD499485
3D8188BC
3DD2A819
3DEC54E8
3E427BDD
3E81729D
3C894DE4
3E4751F2
3D1C9436
BD94EDA1
BCCE80D5
3CBAB84A
3E1E5E74
3D7A14D3
3E902876
3DFFBDA9
3D5CA45A
3E109FB9
3E425A7A
3EA623F6
3E6B27A5
3D922430
3A684990
BD2E7AAA
BD3CC1D2
3D4B5615
3CD378B5
3C0E2BFB
BD6F6E33
3C0E804A
3E2E4A2E
3E143B33
3E0DB909
3E0F1298
3E43DA61
3E28AE58
BA468F70
BD79E624
BDB4D812
3C531730
3D94C3F2
3DDA1F02
3E856ECC
3E683632
3D4C48A9
3D9BCED6
3E44C87B
3E808512
3E0406EF
3DD24022
3D8B3C5C
BCEFC8F5
BD1801AE
3CB3D773
3D3A0FCD
3CE33BEA
BCC82B46
3BF18754
3E1DB28F
3DC2B700
3D786E17
3E1F55A0
3D1CE7FA
3D56BBC2
BCDEBCF7
BD9B8ABB
BE0C196A
BD97A72D
3D40089D
3D160AEB
3E2B6E48
3DDB6022
3DDCBD9F
3E3A3444
3E0EC987
3D9B8F9C
3DAC55BA
3DB5FDF3
3D6A2CE5
3C6F1BC7
BC8BC9ED
BD1B9DD4
3D0088F7
3D9CFEB1
3D6C493F
3DAAF9E9
3E098CD9
3DD8C118
3DD62483
3E29E296
3DD8BC30
3CF289E8
BC9A606D
BC6DCE02
BE180581
BD40F7D9
BD8C8471
3D3E3A79
3D22F159
3DA3E0FA
3E1FB804
3DB9BE5F
3DB290FA
3C2E93FC
BA35C6BD
3A97BFB4
3C5DD2DC
BBD4DF82
BCCCD027
BC456160
3D424D86
3CF85900
3D528E0D
3DBE2EEF
3E24D3EF
3E0661C4
3DE22F36
3D944F7B
3DF6D268
3E17BE7B
BC85B328
BE11E7DA
BE3A6568
BD9A3DAD
BE0FFF8A
BDB75D9F
B931C677
3DB80C12
3D797FDE
3C8C7AC2
3BAD0CFD
BDDC8AEA
BDE9B95E
BC6D6EE4
BB95EB82
3CA34585
BD011AA7
BC8B33E2
3D3BADD9
3D641B2F
3E28BC14
3E2676BD
3D77FECF
3E413F59
3D84A521
3CBD629E
3D44DEBE
3DF80960
3CEE012C
BE38DBA1
BE1DBDDE
BDF9F9BD
BE889349
BE0F482D
BD769AFE
BDCF48D4
BC9FDABD
BD3249BB
3CD9F6FA
BE2BC6E7
BDDA8345
BD69547B
3C6854BA
3D144044
3CEF994F
3CFA5431
3D397B14
3CEE4114
3DEBF8A4
3DC454ED
3D237AFE
3E12BE74
BD1BDE72
BC990688
3C8E0ED1
3D9F3044
3D358B01
BD8B8C0C
BE41A193
BE1A0498
BE11F9B6
3DBC5278
BDB1A93C
BD094CF8
BDBAAA7B
BDA5B5AD
BD7D2494
BE1E527D
BDC89E50
BD830BF2
3B553856
BCFCFA59
BD01B8EA
BC88ADB7
3C3A61C4
BC8A8DF2
BC06054D
BBDA2086
3D2FCDD1
3BFF688F
BD0037BE
BCE1BDB3
3DB23A5E
3E113635
BCD157AD
BDF4265E
BD8FFE37
BCC9EBE9
BD9A631B
3E25D4D3
BDA1E70A
BE5B212D
BE3AD79C
BDBB0C8E
BDA66FB0
BDABE285
BE272CED
BE3D42F7
BC4FC6CC
3C2BDE99
BD019D62
3CA8664D
BD3F63F3
BCABFB5E
BD51C465
BE03804B
BD0D6737
BC335595
3E0B6860
BCB33A21
3D2649CC
BCBC43B8
3DADC62D
3DD41F82
BD3B867F
3D69687A
3CD0FCC4
3DF17E9E
BDE639E1
BE80A545
BE124843
BE4927E1
BE310A47
BE0EF367
BE41A1A5
BDF6917F
BDC61824
3C6895CA
3CE90181
3C8F0916
BD53EADE
BE02533A
BDFA3A5A
BE20F68F
BDC1D34F
B7FFB0A1
3E07C7F1
3E0F5D83
BCF7F9AB
BCDDC0F7
3DDA40F0
3E6BB864
3DE09047
3D4F67D3
3D0AF1EE
3D6F7443
BC88B359
BE42D331
BE2E0595
BE35D890
BE0A26C3
BE1B3622
BDABA902
BDDB8358
BA850634
BD22C2EB
BCF95E74
BCEA7906
3D1C1158
BD701977
BE33A4F1
BDA15B20
BDACD663
BD304556
BB96B0BD
3D280D9C
3C2D2892
3DCFEA9B
3D60065D
3E1BBCE5
3D7A03F7
BDAD91FF
BDB17237
BC9FD053
BE100266
BD75C375
BDD3DEE1
BE1AFFB8
BE268194
BE0503FC
BDD697CF
BDDEA456
BD308259
BD07C731
3C109B9F
3C554DBA
3D082ECD
BDD49D81
BE240B77
BDDBE552
BDAA793A
39E719B4
3D0CA687
BE0FED9A
BDE663EA
BDCA1C03
3CCD7099
BE1CD218
BE0358FA
BE8B5AEB
BE29FB84
BE451A6F
BDD0A284
BD01700A
BE2AF0EC
BE26BA71
BE29F64C
BDC9FD8B
BDB90CD0
BD885AD0
BCBBAAA5
3C2B858F
BC61D6B1
BBD3C6A4
3C77C7D5
BDF97646
BE2AC079
BDC4D189
BD2C692D
BE2D65C8
BDD5FB85
BE04B3E3
BD84CEA6
BD82AF91
BC99A8E4
BD4DEA9F
BE48D7B8
BE09F8A8
BE20D194
BE1E12C3
BE5D1769
BDC78397
BE633B80
BE1745F6
BD03ECA9
BD21C1AE
3C07D5A5
BC90CF49
BCB97B40
3C920F1D
BBA3B1AD
3D159174
3C48CD74
BD9000ED
BDBA68AC
BE0038D3
BDE576F6
BE34A83E
BDD857BC
BE0EA75A
BE8C12CF
BE27414D
BD59188F
BE575A00
BE7D91E5
BE6E819E
BDF01B1F
BDF3D5C8
BDFA5A44
BDBC8AEE
BBDF1FDF
3D47A426
BB9F5481
3D1E4688
BCA432FF
BD1234E8
3D2CDBB9
3C91ED45
BCDEA49B
3CA5AD72
BD3F80C0
BD5742E1
BDC120BF
BE160778
BDAD33A1
BD4A39ED
BDDEA270
BE7A6986
BE413114
BD8B67BF
BCCE237D
BDDE8509
BC8D64BF
BDD89229
3B36159E
3D33AD54
3CC624E9
BB87D43B
3BBFC5CF
3DC4D32B
3DAA3B2A
3DA6DFC9
BC3B9295
BC626DFE
BC8AA43A
3C94325B
BD400124
BBC63D39
BC4FE798
BB2D0F7B
BBCF51FE
BCD65D00
BD6ACA57
3D782A86
BB6CB4FA
BE0E9676
BD28A5E7
3BA0EAA3
3D75FF6E
3E212DDC
3E6641FB
3E5696EF
3E91CBC1
3E931D00
3E332461
3DDEB311
3DA0BD19
3D34B0FF
BCA8B516
3C567F89
3D6D4815
3CBEC0BC
BD262EBB
3C432962
BD2411ED
BD103A51
BD404265
3C1FE0DE
BC70ECEF
3D6909C4
3D7B4289
3D4200B4
3E0EA2C4
3D994B5B
3DE0302E
3DF7434F
3E2C1464
3E69CE27
3E126AC5
3E6361CD
3E9B2356
3E85C92C
3E21C2A4
3E5CE7FA
3DF352F2
3D89ED1C
3D5149CD
3D8B2272
3C7A01B2
BD1F9CD2
BC0FCABB
3C80DAB2
3D0576E0
BCC02B7B
BBF85EA3
3D1BC239
3CDF30B1
BCAE3747
3D45398A
3CDFC01F
3DACD4A3
3DFED3ED
3DA3C4E8
3E338F0C
3DA4956D
3E5660BB
3E5EA957
3E3A3512
3E44C45D
3E1C81F9
3E33136F
3E2152DF
3E244F4F
3D8FD5C6
3CC0F651
BCC39125
BCEC68C4
BC8F8CF0
3D383C4A
BCFAC149
3B329E96
BC7658F6
BD15695F
3D0FFAB7
3C0B5F51
3D0E72BB
3D2C43AF
BC376D60
3D457F9E
3D8257DB
3D5E1BC7
3D9C09AA
3DE0ABDB
3DEDD6DE
3DFEC56D
3DD30A76
3D3569F4
3D921E3A
3D46F6F5
3D97FB88
3C716BD8
3CCA3F9D
3B842A75
BD1ADEBA
BD3FDB68
BCCFC6F0
3C757CD3
BD1F2822
3CD69B8A
BD2BB115
BBC137AA
3D20B001
BC07D87B
3B2CCFFB
3C03F7E0
BBE9C4DB
BA973AD5
3D0BA615
BCE14913
BC22E3A8
3CA93255
3D3F241B
3D11C643
3D41BE69
3CE9CD0A
BA7697ED
3D24A8A0
3CF422E8
3C5EDE85
BC79F1C4
BD015AA8
BD008940
BD2A4372
3C4C1FE0
BCE27CAF
BD43FB01
BD469399
3C822204
3C0844F9
3D22009D
BCAA5B69
BCD3995B
3CC6C24C
BCF82C42
3C8260A4
3C886FEF
BC4E5267
3D02598C
3CEAA85A
3B113D0E
3D1AFE17
3C9EA1F2
3D1432F7
3C225E0C
BD006FF7
3D2ACC1B
3C88FA82
3C19F41B
3B2AAAFE
3C0FE052
BD23B05A
3C798887
BCE2DA17
BCA633B6
3CF50774
3D27E404
3CA2133D
3CCFF0F4
3D0C9F74
3D022314
BCDFEA4C
BD16B4C3
3D5AEBF1
BD2E8975
3CDE5DFF
BBD64549
3CC62853
3CBCC452
BBD9DC22
3D4EBD2A
BBD3A400
BA02F8C1
BC15BC2C
3CA235DA
3ACF89D8
3D458F25
BC38A656
3D021A0D
3CF0BADA
3D18B1BC
3CA86220
BD1B457C
BD12F235
BCDDED02
3B71BB9A
BC3A155D
3C6DFDB2
BCF42F28
BC1F6469
3D3E5E9E
3C0A1C02
3C0C71B2
BCAEBBEE
BB3420B3
3D9B2E11
3B47F4D4
3C448B93
BD0425B7
3D26868A
BAAF89A0
3D1BCC0D
BD0DFEF4
3AE5C456
BCAD7E6E
3D2D1C9C
BC1A754E
3CEDD170
BC932446
3BCCB74F
3D23D23D
3CFDF98D
BC956556
3D0006EC
BCE19CB0
3C84A628
BCDFC20B
3C88A1B9
BCE896B8
3DA70608
3D84155F
3D5079F5
3D4872A0
3DB89C6C
3E05E63A
3D9BBDF7
3C9B240C
BC9B78FC
BCFCA3F0
BCCB0114
3ADD8E05
3BD467E7
3B2F872C
BC8F9BF0
BC63EF37
3BA0F3C4
3BF9FC6B
BCF3BF14
3728AF83
BD071264
BCC89681
BC620699
BCC81F2B
BD0B04FD
BD62BB2D
BC96E800
3C77CC72
3D66DA76
3CEF1170
3D3F1A06
3CE8C6EA
3C90A183
BC334FD8
BD969FD6
BC005723
39BA4A09
BCFB8904
3C19DD89
3C9F7C57
BDBCE412
BD057376
BCD40700
BDB3CB57
BD90DFE4
3D396D6F
3D2134F3
BBC0FA9A
BD3E6C9D
BD03E7A6
BCD92321
BCA6C4DD
3CFB71A5
BD3A8400
BC81ED40
3C2517F9
3D2E458D
3DA2C8FE
3D0E3CD0
BD8BE7D0
BE109A54
BDCB7E9D
BDCDF077
BE1B6B18
BDB2F99F
BD6A7EC4
3CB3297B
BD8EF970
BD33F16D
BD4CC31C
BDC5785E
BDD88EA8
BD916D05
BD2828D6
39DFE4BC
3D34FDE8
3D2F1A8D
3CE00286
3B33129D
3D4BD3AC
3C4B7E08
3D268A55
3CF20905
3D241898
3D880306
3C0CB667
3DCEA2D8
BBC87359
BD2E7ADB
BD966FD6
BDF81B29
BE587539
BE0C5697
BD915054
BD91F3D0
BCBAEA0B
BD32F629
BBAE0EE3
BD1A245D
BDC1F2BC
3ACC4117
3B56D0D7
BC973E5C
3CFD9EB1
3D1FE284
3C8BA8C6
BC8D8B38
3CDEBE1A
3B41C2BE
3D0B1BE6
3D78DDF1
3D5C28CA
3E134846
3E0A7649
3DB33342
3DCC8105
3C910B6E
BD3DE16F
BE2963A2
BE5FDE9E
BE25AC5D
BDC57B05
3D14DF83
BCE75ACB
BDB489AB
BD2B93FC
3C704A6D
3CB3F1D2
3D10D78E
3D1326A5
BD303656
BB039606
3D1668C5
3B15CF9C
3C708BB5
3C0900CE
3BD6080C
3CF2F150
BC9ED9D0
3D72C477
3D410FE3
3E0A5E43
3E1EE495
3DC30456
3DA35D66
BCD9650C
BC5BAE52
39AD2641
BD1C2946
3CF700FB
BCC0B8FF
BD18A22E
3DA7B9C1
BC1629D1
3CEF3DA9
3D9B2F1B
3DBFF357
3D58E56F
3D11C546
BCFDFC2B
3CD7EE66
BBB60390
BBBE833E
BBFF83BE
3D2F0CA1
395DF30F
BC2E8007
3D2028C8
3D6066B8
3DE847A3
3DBF4EDA
3DC0799A
3D990685
3D9383CE
3D5D3C7A
3D1D1DC9
3DA8D3ED
3D5900CE
BC060311
3D32C578
3DA97551
3E12B974
3E0955EB
3E200345
3E091A23
3D829A37
3BC00E4F
3D254AA9
BD1A37A0
BC431E91
3D359B65
3D8868DD
3D228EDB
BC0D33F2
3BCAD953
3D1A040D
3DED13BF
3DF201D7
3E1214D5
3DEEF7EA
3D376E44
3E2EB369
3E6B632B
3E04C5CC
3E1F7500
3E012D75
3D7F8FF3
BD953DA2
3D92EB8C
3E387167
3E542F39
3E069A6E
3E577D49
3DD2D5C7
3D1CA59D
BC931C97
BC5C2F31
BBB789E8
3AE23961
3D66DA3D
3C857DFB
BE0842D4
BDD2E2F4
3C4D488D
BCFF8B4E
BD7ECD04
BC547D9B
BC8B1D18
BDCEA134
3D9A0483
3DD147A8
3D9C2376
3D8A8FCF
3D00D4FC
BD8A0E0F
BD4FC038
BCE95E58
3DCE7593
3E2CAA42
3DC4BE32
3E392893
3D66F4A2
3CB6778E
3CC479F5
3CB0211A
3C80B56A
BC231223
BD13D1C7
BDDD1994
BE184E18
BD9E5B88
BD23F990
BD6D935F
BC6A7EA6
BD8FF3CD
BDBB942E
BDD7ACCA
BDBBCE17
BC9D427A
BD90C6DA
BD257051
BCA77EF0
BCB26976
3CF5FBD7
3D878012
3D99A2C0
3DFDB2C8
3D8BC1BA
3E09E87A
3BE34F94
3CEA986B
3CF72E05
BCBE7EDA
BCCFE397
3A991B4D
BD2E8693
BE352CBC
BDE302F7
BDB546FA
BE1548B8
BE274825
BD70FCBB
BD6EC810
BE032083
BE2B24ED
BE3EF943
BE4266D3
BE732CBE
BDA59138
BDC20DF7
3D67B327
3B32566D
3BB0573A
3D88CD77
3D904668
3E142E2F
3E17FE51
3D66F457
3CBF75F1
BD2BE3AD
3C8A3AE4
3D0ABE5A
BC24E525
BD8D42B4
BE2456AD
BD2A1F78
BE3B887C
BE2D4EEA
BDD9AAE3
BDD24B3A
3DA25E49
BCC228EF
BD1418E6
BE0F0B88
BDB7AEC8
BDFD9F99
BE4D56A9
BDFB7D72
3D333864
BBC317D7
3DF31864
3D33ABE2
3DAE1F0B
3E2B5C28
3E1F97A1
3D671EF7
BC3FCD67
3CBC1705
3CEEC1C6
3C80E8A1
3D11B669
BD9C64AD
BE053E02
BD785DF7
BE23F0E7
BD95292B
BE17C3E8
BC61D4AF
3D9AF7A5
3CC19EBF
3CDD559A
BD83B817
BDDBC1F3
BD9A4C3E
BE2574DC
BDD47284
3D4A58BD
BCEFF125
3D436F46
3BF1D949
BD28D9A7
3D7987EF
3DA4E040
3D2C53A2
3C957A31
BC356EB5
3D2367D8
BD1AADB1
BD0003C9
BD63D8D4
BD61A8A6
BD5129F1
BE53734D
BE154419
BDCF9D0F
3C894C40
3CFD70D2
3DD1F0DA
3D2D8B30
3D5062CA
BBA1CF16
BCF69AE4
BDD5406B
3B332D67
BDDF869F
BDBAC830
BDDD93A3
BD87E0ED
BD426EF9
3D7D55F0
3D846E8A
3D8F70DC
3D85C1EA
BD26AEC7
BD3F2FAB
3CA142A2
3CA2D5D0
3C88A869
3D1A8F7C
BAC07704
BDD37ED6
BDAA618A
BD967E41
3B825411
3D0CF4D6
3E11BDF7
3DEBDB39
3D8FD9C1
BA9FFA32
BBBF2EFA
BCB1D57A
BC3F4AA3
BDB6892D
BDCBA479
BE084D62
BDEE495F
BD01C104
3C9E3741
3D1287EF
BC80403D
3C598A9F
3D25DFEE
3D3A2E7E
3D1D5747
3BAD4132
3CDB2B42
3CD62744
BD036890
BDEAE8B8
3C5EF17B
3D922281
3DD5D4EF
3E1D7CC2
3DEE549E
3E497810
3D287CC1
3A409F43
3D5BE2BD
3D451814
BD759203
BDF999E1
BE167AA4
BE383568
BDDE4DB1
BC1274A3
3D4F4FBE
3D32A350
3D0519F7
3BB8124E
3C945D6E
3D054481
BC585C80
3CC54E52
BCA86C32
3D2E2431
BB4C5264
3C748288
3D40F50F
3D392019
3E10C86F
3E41D3A7
3E67AEA3
3E771F98
3E3711C5
BC01452B
BC3280DE
BD87F99E
BDB43EB9
BE042A8F
BE5ACE21
BE35CC5E
BDAF9905
3D939D20
3CB32DC4
3CD35D7C
3CF90FD8
BCCD9E48
3CCFC4C3
3CEA4953
BD09229C
BCF867FB
3D0BCBA6
3DAE2D79
3D536136
3C1758E4
3DAF6518
3E043981
3E43ABFA
3E885221
3E63D9A4
3EA7C7BB
3E130B5E
3D99061A
BCCDD2DB
BE18A37E
BDD1C3A6
BE198021
BE023880
BE224238
BDAF9BC4
BCA40890
3D07AC04
3CA01562
BCAB93E5
BD3D1526
3C63D955
BBCF0318
3C2A6DF9
BCBCDCA5
3CDC547B
3D917EB5
3D4D1412
3CE1CFA5
3D870000
3D04ABA8
3DABF822
3D9DA99A
3E0D529C
3E3D3483
3D7B1EC0
3D30E068
3C0DF2AA
BCCB227F
BD419A5D
BE0CD19B
BD94A96F
BE22E8C9
BE1630B4
BCC96E22
3C51BDCD
BCEA959A
3CE7FA86
BCB99B4B
3C7DD474
BD372C9D
BD1DCA9E
3C2D9402
3D048DB2
BC8A262E
3DADF375
3DE4D7CD
3DBF9890
3BE4CD2E
3D8FEF70
3BD24322
3DCCB73D
3D50014B
3D891F04
3D91C22B
3DC44A11
BC59AC55
BB10347D
BDD5CCB7
BDC3170B
BE034683
BE1E6104
BDB3BC11
BCBAA0CA
BAA25C4E
3D57E7F6
BC2D69F5
BCE0FA92
3C389635
BC97B548
BC924900
3D556B5D
3C88A7CC
3D57B993
3DA498C1
3CF40CE1
BD03B517
3CB2E307
3D969921
3DBE211B
3E076D9F
3DE8D580
3D6D356A
3DC2AC1D
3CBE9168
BDBB2C02
BDF19846
BDC8B776
BE009527
BDF3BBA0
BD51B3F2
BD055F84
3CD0601F
3D308E98
BD356FFE
3B1C4CC7
3CCCF697
3CA8C36F
3C955D12
3CB012DB
3D4A59AA
BC6F383A
3CBEBFF3
BD90F7B5
BD117EB1
BCA7D158
BCB01DB7
BD02AC71
3DF2EFEF
3E1E9191
3E1F7B94
3E1CACB1
3D80AE6B
3B4E9B37
BD70E8C3
BD44DC91
BDDF76C0
BD2AAD78
BD8A64D0
BC0CA0F4
BA9FDFB2
BCCD97AF
BD0F5518
3C0D5BA8
3C1D2ED8
BD10B784
3CE1CF93
3CAF48FB
BCBC0605
BD1693A2
BD00E969
3BBC5531
BC8D2E6D
BC864F19
BD3E7384
BB185478
3D8FDE65
3C8C3249
3B8E4C30
3DBF61E4
3BC289F9
3D12C892
3CDB25D5
3C0C0C29
BDACC318
BD3B8C25
BD88484C
BCABB962
3D156AF7
BC994827
BC5C48F6
3BEA4B5C
3D22B8EE
BCDFEAED
3CC36BD2
BD211B0F
3C3FEDD6
BD6CFBAB
BD6F8CA4
BC366315
BD8243DD
BDAE032D
BD6D4085
BD4FABDD
BB8B3C3E
BC513A3D
BD824041
3B0CA814
BD8F373B
BD8F9339
BD02CFB1
BBF736B9
BA43C26E
BD8864AB
3CB9F966
BD1D8018
BCAFD64D
BD30656E
BCACEC7F
BD1D1E0D
BD201C1D
BD02DDD7
BD1FBFAE
3C56DB4E
BD0F91BF
3BA0C431
3D2802E3
3C5599A9
3D3662A9
3CFB2139
BD25D326
BC8FC1DE
BC5F02AD
BD08C8E5
3CA6B6AA
3C9591AC
BD0BAF0C
BB7B8806
BC7D87BE
3C8D100D
3B70E049
3D212E93
3C805EDF
3C3166BD
BB96E824
3C0F1808
3CDECAF4
BC0F8907
BC9D0B5D
3ABD447D
3D3A8B49
3D2B992B
3C09F9E1
BD1E1DBA
BB88BAF7
3C42A49E
B98BD33C
BC6A7C5B
3B431C27
BBEA0FE1
3C96580E
3D0F1831
BC67EAF9
3D2622BD
3C783354
3D382634
BC2D0A77
BD0B56C1
BD434AB8
3D3E83AA
BC03B8E6
BC3DD417
3D12F887
3D086212
3D2E8E77
3D253855
BD12B47E
BD3514EF
BB3CC6F5
BCCE2E9D
3C183525
BC57E127
3C29143A
BD2478DC
3C8F8B0F
BD26FA08
BC87709B
BCE93495
BD3D6146
3D038976
3BE4FB56
3D1EFE76
3D0BB117
3C6171DF
3B037AF2
BD53580B
3D04B61E
3C8BA703
BD2DBB49
3C0797E2
3D4516D6
3D2B28EB
3BB6DF2E
BC242BD7
B8D3E8A8
3C93E2C1
BCA37614
3D0BE1E5
3D1CAFB3
3C0DFE92
3C8FBC8A
BD3622CF
3CC6808D
BD7285EB
BC7C6B75
BD72263E
BDAD7DE7
BDAE0FBA
BDACE09E
BD6ED43A
BDC77D52
BD463600
BD000D25
BD51DD2F
3C221BDE
BD628CA7
BCF253DC
3D2FCBF2
3CF55872
BCF22CE4
BC97F583
BD2F9A54
BC075F30
3BBE0346
3C93875F
BD0D1034
3A8C5DB8
BD46111D
3BB35D80
3CDA6AB7
3C934D52
BD022F58
BD90DD3E
BD708606
BD96BE41
BE20F182
BE591711
BE574428
BE4870DC
BE2F83EC
BDB4129C
BDF4F3FB
BDCEEE75
BCB8AF80
3BB63522
3CE60A7E
3CD23698
BC3F6F67
3D30BE8F
3CF1C239
39BC6A3E
BBA96081
39AFD8C9
BCB7AB66
3C8CAB82
BC07774E
BD4088AD
BC4B3807
3B97596B
3CCEC08B
BD9FCC0B
BD5A50FB
BE26C753
BE746340
BEA2D51E
BEC958BD
BEC5CB6F
BE964D00
BE4A1F70
BE317C8D
BDAF071E
BDC9279B
BD8C6F3B
BCBA3B29
3D413B3A
BB94AD69
BCCD1BBB
3C312C95
BCD86F2A
B9DE014C
BA37C34C
BD1B0D3D
3CC8F310
3CE3BDAF
3BBBDB89
BCA85A75
BD68E0DE
BD8658D5
BCB6307E
BBC10664
BC8F8574
BD58EB51
BE28497B
BEB30667
BEFC9996
BED5197E
BE93FA29
BE84BB03
BE3BB52D
BE1635FA
BDA33660
BD9AD622
BD26F8F4
BB69EF6E
3D22892A
BD3D2BDB
BC265208
BCDCB1E2
3D02D9D3
3D064877
BC84B1EF
BCFCD1BF
BD2C042B
BD35CACF
3C9342F6
3CEA518A
3D6CA10B
3D77F360
3D9EE940
3E170907
3E2A55F6
BB9A1B95
BE0EACDF
BE73B886
BEA48517
BEA8A74D
BE8FEC79
BE0E6033
BE5993AA
BE3F4230
BDE29622
BD677430
BC2DF300
BCD681E2
3CEA5AFA
3CB89F02
3D202FA5
3D787047
3BEF9CC9
BD467372
BD7A1BD4
BD172888
3CF84120
3E053E52
3E161F7C
3DA87DA3
3E476340
3E898C4B
3EAD95A3
3E62C367
3D16EA38
BE406A7D
BE990B46
BEE198DF
BE987591
BE87A2C3
BEA37933
BE4A667E
BE3A1111
BCAC771C
BCCBF24C
3D11C349
3D3E7726
BD229836
3D230E2A
3D6618D4
3C7E6175
BD637882
BD9873DA
BD7CB1A0
3E24113D
3DCAAAB3
3E1E4303
3E714BB5
3E67C405
3E901A6C
3E9358A6
3D8D64EF
BCC0743C
BDF7B173
BE23469B
BE7C19A1
BE7E8CB4
BE9D55C4
BE80B6D9
BE6D158D
BE04E3E5
BDF5628A
BB33BD22
BC826B82
3C9C07D2
3D137FCE
BD0CF052
3C62B7F5
3D138D73
BBEA5789
BC40B3C4
3DD4AA34
3E03AD10
3E0FAC6A
3EA75B32
3E892A95
3E4E99D5
3E822E65
3E5EA43E
3DB7FAC2
BB0285C3
3D03C8E7
3D076D7B
BD71D4E5
BE51A3E7
BEA61E2B
BE6CE059
BE27FB2D
BD88FB7D
BD89D7D5
3C035F59
3C64ABB8
BD2F9A2A
3D2EA1B8
3C6593F1
3CB49318
BD001AD9
BC959A93
3DB9B7B3
3E03972D
3DA6CD92
3E2C6EF6
3DF63926
3E09E904
3DB42EE4
3DC61F7D
3E3C3B8D
3DCD92A3
3DEC44C0
BBA7DABE
3DAF2B59
3DCDF117
BDCAC026
BE73476D
BE4DF290
BE077D8F
BD8A3355
BD701DF5
3D2A848D
3D55DF9D
BBFA5E4E
BD2A03B2
BB024577
3D7ECAE2
3CB2DAEF
3DA7DD79
3E363904
3DD21C61
3E00065F
BBADCE30
BD37F5EF
3D6A0B87
BCE25BDB
3DAF6C11
3E053ABC
3E0916FA
3E2B593D
3E737526
3DF9B6B8
3DF2BCAF
3CF1EC13
BDD7C933
BCE4001C
BD15906D
BCC0A886
3D5F9CCE
BCEBCB9D
BD1FE0F9
BC7D51CF
3CB4291A
3BB3DB1E
3D6C54A8
3E3112CC
3DB4CB59
3E251B2C
3C7323C7
3CB64D4B
BDB98E99
BE757414
BE896B2F
BEB476E8
BE2FE3E5
3DB68D15
3E3B6821
3D928430
3E562301
3DECAD4E
3D97A56D
BCDCE42F
BD8B26F4
3DD82E6A
BBB5E7F8
BD449709
3D64C08A
3D6ABF2F
3B8E588A
BB4F4D94
BD273077
BCB121C6
3C2969A8
3DAD83F8
3D297926
3D9E3FD7
3CF775CB
BD87D125
BE25B54F
BE2DE3A9
BE20E5C1
BD9683C5
BD249B65
3D93F3D8
BB74C8EA
3D9341A5
3AC9EB59
3BFD07E1
BDB9C272
BD36F22D
3D67FD69
3DA8F9C0
3C106905
3C2E0477
3C077EF8
3D8CE64C
3ABD2981
3C96DCA9
BD1E3F0E
3D0CD061
3D3EF373
3D87D800
BD733515
BD8523C4
BDBA6D45
BDCE427B
BDDF05C1
BC53DC84
BC23D2B1
BD8945F6
BD3D5EF8
BDE546B3
BDD19C34
3ADEBE39
BDB589BE
3BD3170E
BDB8821A
3D79CE74
3E04C4B0
3DD5C4FF
3D0E859B
BB99DB07
3BE6CB33
3D57AA64
3CC89CEE
3D2291E2
3B576E2C
3C9FF03C
BD7AC133
BD4F393A
BC84E1DD
BDB74932
BE315F2F
BDAF07CF
BDE7822B
3D877A38
3D51D656
BD7540FE
BDFF0E93
BE2A8807
BD1155BD
BDAB25CD
BB8D3197
BB284E23
3B08F3BD
3DCF1DEF
3DD104CB
3D646425
3C5B3F22
3D6B6A6B
BC4F98E6
BCB787D8
BD037D11
BC8E083F
BD1E250D
BA475C72
BD85B14B
3D2A8DA0
BCA5EE06
BD975BFC
BD65ABBF
BC452594
BD29483E
3D441A51
3E1074FD
3DEB8D85
BE1A3931
BE5FC2AE
BE3DC2D4
BDF3EF72
BCC2EF58
3D44D660
BBF38C40
3BA8B0AA
BCC55B73
3D58794D
3C655D84
3CC8A688
3A8E20C6
3D08EC7F
BBDA735C
BD0CF4C0
BD418D70
3D072609
BD7BD86F
BD68879E
BCFBC8F2
BD7DB488
BC757124
3E0DAC2C
3DB7C208
3E129F0D
3E38CCA4
3E2B4BD1
BC23BC28
BE3C6D1D
BE19769A
BDDE63DD
3C762883
BCCFEE5F
BD05DC37
BD66FF72
BD780F2D
3D0F972B
BA6EB502
3BD21F6F
BD29E31A
BCACAFB8
3D4B913F
BD28CB6B
BD18E3AB
BD15C21C
BD19B79F
BC0838E8
BD67B163
BD9BF901
BD29CE81
3D055CA3
3D817CCB
3E2CA739
3E3E5DDB
BCE5E142
BE1963DC
BDC16F1D
BDF1A92F
BE2BC93A
BD616616
BE060029
BD6F1741
BCCA760B
3CE34221
3D1AEE1F
BDDB43E7
BD7CF9EA
BCFF61E6
BD362A53
3CDF42D7
3D00F0E5
BD02053C
BD2DCD02
BBB393C3
BD0F1B79
BE174C10
BE0E94F8
BDE1DFF5
BD92C59E
BD8C1539
BD7650F6
BD2C4590
BD823FCF
BD7D6879
BD0D054B
BDB7B824
BE167D09
BD6A5EA5
BC99778A
3D2C7884
BD80936C
3D1E30BA
BD3336B8
BCC72325
BAF237C9
BCF7289F
BCB5F444
BBD7DC40
BCD3DF5A
3D499C31
BCF56750
3C051534
BD113CC9
BDFDAECF
BE509390
BE754C3C
BE12A3C3
BE493EB9
BE6395D2
BE8DC000
BE3D7EB8
BD6B341E
BD932F63
BD3B7930
BD469E3D
BE0DDC29
BE1FA2CE
BC0EEDB8
BD8672D3
BDE98F98
BC56A7B2
BD240EBB
3D451E57
BB897322
BD3CB754
BCA4D7F1
BD40B34C
BD253ABC
BD1C12F0
BD6D10A9
3C1D008A
BDCB3E18
BE015032
BE006CFF
BE4289B6
BE6CE75A
BE5CDB94
BE841A89
BE2DE8AA
BE2FFDF0
BE29EEA3
BA837CAD
BC1935E8
BE3E1751
BDE60806
BE1BA92B
BD57C0D7
BD057156
BD98B492
BCF60DB0
3D336409
BCBA49BF
3CFC7E4F
3C222F17
3D1B92F4
3CA0F085
3CBEB065
BC75A59F
3C03E83C
BDCC399C
BD7DA553
BE458CD0
BE26BFFB
BE697DB0
BE836128
BE5D8A6C
BE1A72E5
BE4F8679
BD8DD40A
BE42C2A4
BE1FAF8E
BE1EC44C
BE6337D3
BE700B33
BDABD32C
BDF51B80
BCA9FF8E
BD00A313
3B9A3401
BCA3A096
BB89536C
BB76A277
3D0E9778
BCC658FB
3C54C2BE
3D366A2F
BBBE866A
BD53EB51
BD3B5A07
BDBE5DC9
BDD0AD9D
BE8BB95C
BE433056
BDB22A29
BE28BFB1
BDDF130C
BDD8FAA6
BDFD0163
BE4E5782
BE3422B7
BE6B3074
BE0825FB
BD9DB933
BD8D9BFD
3BBA9919
3D856D45
3BCDC11A
BD19CE8D
3C50997C
3BF28CE4
3AD74C7E
BD1DB240
BD2D18A9
BCDD71C7
BBD52835
3D691473
3D86ACD7
3AF97660
BB952727
BDD30D78
BDB904CC
BDCE5BEE
BDF5457F
BDECB54D
BE24578B
BDC659B8
BD8A35BF
BD0E2EE1
BD44A9B3
BDCE58B1
BD150274
3D10AADD
3D16267D
3D27487D
3CCDCD43
BCD7230B
BCEC70D3
3CDC46A0
BD01E7C8
B9DF3064
3CDFFBAF
3D3BD690
3D0E5EE4
3C3D371A
3D8827EB
3D1B8CB7
3D83AFCE
3D8A07B7
3DD4492A
3D2D2DEF
3DCDCFE9
3D488758
3E034629
3DB7295F
3E089F37
3DB2F1A0
3D977777
3E487443
3DCBE817
3DCEF14E
3D922F58
BD2D4273
BD44D0DC
BD1BC518
3CAD7FE8
B828312D
BC5A5ABF
BD3060E6
BB3DE51E
3C7546E6
3C54D17F
3BBED1DA
3BA7DDAD
3D898C33
3DC63AA5
3D8B842D
3DE1BAC2
3DE53540
3E161818
3E652080
3E9DFD81
3E4737B9
3DE29EFE
3E3CFC02
3E48E711
3E08E05E
3D474BF4
3D80FB7B
BBE7B475
3C144AC6
3BAF1437
3C6DBD9B
BC7F9AF1
BC0DCC24
B9E4807A
BD15C039
3D27CD41
BD16398D
BC21AC83
BCAB0FFF
BD16E7B2
BCA39ACF
3D26AA2E
BD290609
3B869133
BC8EFF86
3D563691
BC0CCB6B
3C48D5C4
BC8AFFCC
3D1BF5D3
3BCC4173
3D953C46
BC903E57
BC92A15A
3D2B0542
3C99C558
3B5FC6A8
BD117D82
BCF92E4D
3D323CF6
3D1353EA
BD0C52F8
3D309CD3
3BC1F37B
BD41146F
3CC6A3A8
3AC99244
BD3001D2
3D213494
3AF1BA3F
3D0D59C6
BA1595F6
BC752E4D
3CDD30A7
BCF9DCAC
BCC9E393
BD36D57A
3D004F9F
BC753647
BC8E8F29
BC270791
3C8DB7E6
BBBB7A66
3CEEDED8
3CA0E6F1
BD2396EF
BCFB43E6
3CC6FB7A
3D200E69
3B64D433
BC4A98AD
3C9126C2
BCC3426B
BCCE6B7B
3CB96FB1
3B71399C
BCF0BDD4
BC5CD3F3
BAD6FB61
B9C562A3
3D3DF180
3D1CD2E6
3C8F6155
BC654987
BD25D403
3D49A4C0
3BB2183D
3CCE57CB
3D0E9AAC
3D3EC819
3D167C26
BC82B0AF
3A4B0301
BD1A3353
3D0C42D7
3C6E9AFA
BD23F4B2
3CDBC426
3C9484E5
BC98F894
3C9CE885
3C2082A3
3C29D125
3D0A85CC
3CAFC45D
BCA87F06
BB2C1EA3
3D3E529D
3B99193E
3D0DE833
BCE94478
3C95649F
3D56D280
BCD5A595
3CA9B11B
3B83A145
BBD06CBB
3B235A7A
3BD8AD12
3B019718
3B4226AB
3C9FD4DE
3D1129D3
3C6F46E6
3C25424B
3D2990B3
3C29B694
3CE22919
BCF288C2
BCEFA471
BCD21361
BCC15DD3
BC13A658
3C1E3981
3D8C9EEC
3995C7FB
3D9CD5D9
3D602547
3DF79762
3DB4847E
3DD4C4A1
3D6448CE
3DA1887A
3C9CB0F8
BC86E8B1
3D5A8F5F
3AE2B1C1
3CA25E84
BD33C544
BCBB9B49
BC66B3CA
3CE6694E
BD2AFE69
BD1761B0
BD0FA108
3C22FADA
BD251AD2
3CAEFD08
3D30CD70
3C06BE23
3C700236
3D62EBDC
3DD1E75C
3DF217CB
3E1BC3EC
3E23A4F4
3DD630F5
3DC623FC
3DA507CD
3D6D2496
3DAAED6C
3BCAED09
3C267351
BD544F4C
BCBDF18C
BD27E02F
BC47FA32
BC8EBCB5
3D49E384
BBE1E603
BD336677
3D401465
3AD35720
3D2A706A
BC1B1C98
3D1C3812
BBFF04B7
3D2338CD
3CB095A5
3DB6F57D
3E0F4558
3E3B8270
3E75675E
3E213CDE
3E0D4B7E
3DF88CA9
3DC5EA63
3E04709D
3DA7F616
3D80971B
BD22A327
3B0DB1A2
BCFDDC15
BDDD9E03
BD41C371
3C60D10E
BD0362FC
3CA21C61
3D303F15
BD3CEE63
3CC6993E
3BAA9D14
BBA02A22
3BD85D83
3D1CFF51
3DCDFD08
3DEC99DA
3DE9B27F
3E4D7DE3
3E79A5C5
3E0DC73B
3DA4606B
3DE471E4
BC0C4FF6
3D2692AC
3D40AB5F
BCE863CD
BDB9B92F
3C83DFF8
BD3F8FC0
BDB1A6E6
BD887FD8
BDA9BB71
BD92FAE7
3CF0A7DB
3C5AEEAE
BD03C69A
3C4C6B44
BC68330F
3CDFF507
BCB98665
3CC20433
3D545CB3
3DDB5645
3DB5EFDA
3E312AF3
3E05B7AD
3E0C3245
3E1EDCDE
3D80BEE5
BD25421D
BD4ADC69
3CB6A941
3D0D43CD
3C163BFC
BD445077
BDE34E1C
BD659831
BC76BE49
BDA42E3B
BC8A3E3D
3809B5D2
3BF5AB8A
BC9AD229
BB56373E
BCAAF4F0
3CA01B65
3D54A916
3C1EB5BC
3D2C32B6
BC5B9CF0
3D4DCEB7
3DEF347B
3DABBE55
3E35C5D1
3E222775
3D2134BF
BB6E42F4
BDC1DF0A
BDF75E7B
BD0445D8
3DA1653C
3C9AF1E7
3933727F
BD993214
3DB6879C
BA7D6B97
BCAD32B3
BC147655
BD7FEAB2
BD6BFC8F
BD3C57A3
BD03E34C
BCCDB869
BCF1D2E8
BCAFD8A5
BC79C9BD
3D8C5CD6
3D6D3C5B
3D74AAA2
3E02C968
3DE0DEB2
3E470E5B
3D59CE0C
3B72FE72
BD1ADF2A
BE4BF9A0
BE080DE8
BD471D20
3C8CD85A
3AC00789
B99CA290
BAF06A9C
3DBDA842
3D99A1B2
3DAB4B8E
3B28167C
3BE5FDE7
3D20671E
3B72E9C7
3C417657
3D40E916
3D0BB8A1
BCD377B2
3C5954B2
3D4CA0C5
3DBB9259
3E0A9701
3E0B810B
3E1FFB02
3DBCF283
3CA1C9FD
3C69544D
BDB4E0EC
BE0F64BA
BE0488E5
BDCDE51B
BC0C68CD
3D44619B
BC9F80FF
3CE9A676
3E104FFD
3DF13908
3D8C2E50
3DC67AEE
3D752357
BCA25E6C
3CD75ABD
BD08B19D
3D190853
BD155441
3C848DD0
3CDCE1BC
BD0584BA
BBE4AF98
3DB1749F
3E4D8C66
3E05C6F3
3C7E5E7B
BC980B2D
BD84FD4B
BDDD5C85
BDB405A0
BDB1C2F6
BD388AC4
BCFEAABD
3D4187DC
3D072E8A
3E0198CE
3DDA7BF7
3DE5B48F
3DF196BD
3D961F4F
3D27939D
3BEDB528
3C166AEB
3C39AB3B
3C213F82
BB3C5FD3
3D05EA39
3CAF966E
3D0E6D19
3D2866FC
3E03BE2A
3D1DD84A
3DBFF49C
3C680415
BDAB19C7
BD92DA6B
BDC9DB63
BE059738
BDC1AEA0
BDB8511A
BDAC142E
BCE5C334
3D6EE215
3E301A6D
3DFA1CE8
3CF387A4
3DF1F9E5
3D146BEC
BC298373
3BD6C182
3D399E7D
BBAA16C4
BD10FCC4
BD011AF4
B9F0D956
BD3C5433
3C2975D0
3D2A8D52
3D8713E0
3CFDC972
3D8BB1D7
BDC5FBBB
BD9A588E
BD884CB7
BDE40CFC
BE143499
BE00A870
BE32B85E
BD78D5FC
3C2E5F2E
3E0344B3
3DD675BC
3D090F83
3DFAE61F
3E168877
3DEB37D7
3DEFFCD2
3D977C21
3C990677
BCFCEF84
3B95BE9E
BB180D23
BB1F3B9E
BD093A2C
BC96AA9A
3BB7E01E
3D6B6658
3DD19FC2
3D5C7E76
BD858807
3CFCB5AD
BC8CB7B5
BE20533E
BE096D52
BE2A3F7F
BDC61927
BD5EC4AE
3E33E630
3E54C02F
3DF8E73D
3DD69905
3E116841
3DA2D499
3DB12E90
3DF224FC
3D166830
3CFC40A3
3CBC0EA0
BCBB644B
BBF5DC48
3CC74125
3CE07140
3BE5C531
3CDE40BD
3E24CEDA
3E0A678B
3DC1C5FA
3D798010
3D003926
BD098A9D
BD305EDC
BDCC7C06
BE1009ED
BE14E53A
BD222787
3E724E72
3E5C7D10
3E41D886
3E55DB6C
3DF9C893
3D3EF8EA
3DCF1AB7
3DF50E3F
3D9A6A04
BBB6485B
3C86C25A
BB2A3747
BD251F14
3D114B38
3CE0FDE0
3A998C48
3D9AD099
3E0DE4F7
3E33A974
3E2A7360
3DE5EFCE
3C703D07
BB43F618
BC7F65BE
BDDB4F42
BDD62D2A
BD9376C0
3D8F1B1F
3EAAB11E
3EA7360D
3E7E5DC7
3E2A4221
3E14918F
3E0EA1F1
3DD4E045
3DEC95F4
3CEB9357
BC7A6931
3CCD7A7D
3D31A963
3D3DEFD2
3C9C0448
BC84AEAE
3D882A54
3D9217C9
3E28B3D9
3E1CCAEC
3DCEC9A9
3E128887
3CEA6840
3D704B8C
3C85C3CE
BD7BB4FF
BDD11C3D
3C6D5C38
3E64C095
3EBB1B57
3E910C6D
3E8445D6
3E5700D0
3E2F09DB
3D85D937
3D48B4FF
3D1EEE86
3CB7A720
3BBD3FB2
3C589388
3D401C6C
3C650F81
3D3F831E
3CD172E2
3D7D6F64
3D949FB9
3E2AA0A6
3E327442
3E158AF4
3E008F7B
3DE9EF2C
3CB57897
3C0D5F9B
BD81FC2C
BDB4E2D5
3E0F722D
3EBFAA4B
3EC757ED
3E87A7AA
3E5D557C
3E1A59DC
3E3BA067
3DF9C58B
3D9CEFCB
3BC792B6
3C945597
3C2B8CD5
3CE68D8D
3D17AF2E
3D140996
3CA8F603
BCA2BEDA
3DA9DE37
3E1D2BD1
3DDBA2C7
3E512275
3E16E17E
3E2579AB
3E1A6BFE
3E0117C2
3E001FDF
3CEA2FB2
3B680BEA
3E39F14E
3E7C90F6
3E7A1BCD
3E88BE4A
3E44F4B0
3DCC700D
3E407FBC
3E158ED4
3D945929
3D467B59
3D1F2979
BCE4732E
3D2C4E13
3D2461A2
BD3C75FF
3C2C1A08
3D0B0D75
3DC2DD13
3DFDC031
3D7F1CFD
3E14C224
3DEEDCED
3DF91165
3DE00BDB
3D94146E
3DBC8368
3DB999DD
3D059AA3
3E1AD058
3DDBA47C
3E33CFFA
3E0D443C
3DC4E663
3DA0CB38
3DB55103
3DC799F2
3D530440
BC1B7D93
BCEBA5B9
BC4F0905
BD3CAE00
BCA80F79
BD4327D0
BC8ACB48
3D1DEDD4
3D754830
3D04EB77
3C16AE57
BCC05B5F
BBD7FBA8
3C73FE73
3C719467
3DEC3CCC
3E1430AF
3E0B2707
3DE12266
3DB10CB6
3E00B97A
3DAEA197
3DF7C586
3D6B261F
3D09BAF5
3BE1AF76
3CF8CA2F
3D66BFEC
3CDDEF03
3D499B77
BC8BAF1E
BD2E8922
BB4C28BC
3CE060B9
3C128794
BAE9FB38
3D04A9FD
BD1D663F
BD39D7DA
BD4D7A38
BDC672B0
BDB6CC2D
BCD20777
3DC2E674
3DC015EA
3C89A577
BD18E2FC
3DBD5998
3D995FBF
3C15788D
3D8D1752
3D9EDC75
3CCD965D
3C69236C
3CCD0554
3D17D31A
BD140D40
BD022F18
BD3EAB86
BD447A95
3D07D35E
BCE1F801
BD1C8D8E
3C8E0A8D
3C2D1064
3CD72DA0
BC265490
BDB1DA33
BE0CCCB8
BDB3520E
BDEC2D41
BC64C67A
BD65FEB3
BD588C12
BC3EE7F1
3DA0F215
3D31CB76
BBFA2A40
3D11DCB8
3CAA7580
3C60E511
3B5075B0
3D42268B
3D4408F8
BBC60DD0
3D263FF6
3C9EAC77
3C81BA2D
3CFC155E
BD2626C5
3D29F3A1
BD1245C5
3D743C27
3AFB7ED2
BD09EC9F
BD0828FF
BD830607
BCED747E
3C2459A3
3DADB547
3E26BBBB
3DCFFD9E
3E194EF3
3DDF5AC2
3D70AC99
3D56149B
3D27A97F
BB9F88FA
3D8CB739
BC17C2E0
BD471380
3C602BB6
3C851D4C
3D150985
BCE042DD
BC4FB8D1
BCED48EA
BD2CE0A9
BC294C43
BC5DB3F0
3D2ECE5D
BC6C691E
BC6496C4
BBE888F4
3C170A55
3D539B84
3BF56891
3D369060
3D514BD0
3DD7E6B0
3C81614B
3D88C33E
3D4C4D8A
3D6F5225
3D39F3C4
BD06ED50
BD1D048C
3A8F4E50
BD195836
3D13DA90
3D393B03
38D7FDD2
3D449BCD
BD173487
3D37BC96
39F4C162
3C505E9D
3B016D3F
3BA8E094
BCAE9723
3D03C47B
BD47B6D9
BCB42BD0
BC38FAA6
3AAA36DB
BC92D2BF
3D2A2A5D
3CBE935F
3B968207
3C805FAE
3D1066F7
3C335E0F
BD3B813E
3C1F5CBE
3D0754EE
BD4843BC
3CEAB83E
BCC2D6B1
BD1203B7
3CE7AAF4
3BE164ED
BCA210AF
BD1ED02C
3B8B8B53
3BE8D9A6
3CC9FACE
BC785EEE
BCBAC478
BD01F418
3D32CC19
3CD7525B
BD10C480
3B9E6572
3CC6CD5F
3CF4FA89
BD035A7F
3D1F2B2E
BCA4D4BD
BC565F62
BCCBEACC
3D289858
3B32DD78
3CEEF64C
3C9989DE
BC37252A
BCFA68AA
3C84045F
3D1C9E6E
BCD347F2
BD437A73
BD21F0E8
3C0988AC
BD3F36E7
BCD30BCF
3D0E5688
BB114A29
3A58837D
3D42A1BA
BD013729
BCF249FF
BD121F2D
3C8B0349
BC11CA88
BB5F6421
3D2274CC
BD2AB771
3D337716
3C17F22C
3CFAA483
BB743217
39A1BAB4
3CBE5E6B
3D2C1647
B9C5161B
3C91F4A6
3D0D7B6C
3CC77CE3
3B60E0A7
3D1F356C
3C3D26B0
BD414AAA
BD25381D
BCF912B9
BCF45C5E
3CD95E09
BA39C346
3C7647BB
BD3AA9F1
3D1F4C36
3C0DC340
BD310BE2
BC94927A
3D15E69B
BCF9EC2E
3CBA9E3B
BBE4328B
3D3D39BB
3CF23739
3A1A36AB
BC2DE0D0
3C8DCDAB
BC6F1177
3B455581
BD17FE94
BD22DF3A
3C76E912
3D3F2869
3C5FA30A
BD3D052A
3CA9581E
3D3ADD03
BBB58F2E
BD0E1F27
BD104255
BD281007
3BAAA2BA
3D240312
BBFB162D
BCAD9A47
BC880AC0
BCB5DEB3
BC44076C
BC1FD16C
3D812482
3CA6B257
3D69E184
3D085F74
3C1342D9
3B633944
3CF4FE88
3D334A4D
3C0FB734
3ABFFFCD
BD1D53EC
3C1ABD59
BCFC88A9
BC61FE08
3CC2E503
3C2AA2AE
BD0663A6
3D33E959
BB9DF595
BB01187A
BC847385
BD92AFF5
BDCE6A8D
BDFF6423
BE03FA5D
BE3FE6FC
BD64C964
BDFC0C00
BDF1E9AE
3B9DE454
3C4CFDDF
3C191461
3CF0F0FD
3CCCD103
3BDD54C7
3CA6211F
3D2431B7
3CC9E994
3BC7FDDC
BD1A979D
3B1046DA
3C53AA23
BD26A788
3CA496C3
BCF015C7
BC8114C5
BD63E488
BCD65796
BDD6411A
BE13DF7B
BE157686
BE4B1AC8
BDFA0438
BE000D53
BE458CD6
BE1CF2FD
BD66B63A
BE0218FF
3C8FB713
3DA6CC31
3DAEE629
3E0D6A78
3DBD4158
3BE51CAE
3CE98841
BD0AAE0D
BCCFE671
BD2EF152
BC150D59
3C4887E0
BD0C676C
BB84533F
3D096FBB
BC0B3D46
3CAF323E
BC9C4FAE
BCB78DD9
BC7FCBD4
BD7A8607
BD5AF064
3BCB40B0
3D2B492E
BDA829CC
BDFBF3E5
BDB95D68
BD8E8EBA
BDA2B2B5
BD9403A6
3B2F3ACB
BC789127
3D583933
3C9BAF18
3B322A9C
3D27A10F
BD22D5CC
39B97B23
BCFD69CC
3B541EC5
BD2A5B16
3C847B51
BB5254D8
3D387070
3C56F02B
3DDB3604
3CB05C18
BB078624
BCE2C87C
BCB3401C
BDE99159
BD17290B
BD4A57FE
BD5E9DB9
BD884788
BD04631D
BC36D7E4
BC89C9BC
BD38087B
BDA7BD03
3D1BF086
3D093B8E
BD001287
BCF0943B
3D1CDF82
BD058792
BBFA3C53
3B84DD59
BC95E5E4
BD41B169
BD899C01
3AC700D5
3DAF2AD8
3D9FAC4B
BC332E42
BC454AFC
BCB6D97B
BD433C66
3B043202
BE0D1E32
BDC34272
BD85FDAE
3CD7FAEB
BC5EC0AB
BD04F85F
BD3F51E5
BD8ACD7B
BDB48FCD
BC8519B1
BC0A0195
3BDA7CFA
3CD013AE
BD320A3E
BCB72E2B
BC838DC1
BD2C3710
BD65861D
BD84B91E
39B86F04
3D99E9D5
3DC27828
3CEA144A
3D0296AF
BD83885F
3CDCA29E
3D20AC87
3DC6BDC9
3DB99B69
3D11F532
3B8D43F3
BCD2F40E
3C8FAE77
BD83FC47
BDCB5370
BE086892
BE2C12D8
BD8AA0BD
3C61CA3C
BD509EC3
3BBBD307
3D3D41C4
3D2D4F5E
3BA80F46
BC9960C8
BCE99F09
3C3A247D
3DC82C5F
3DA95DF0
3E008073
3E2D7511
3DD90FE8
3E1B77E0
3E1FE73F
3EA219AD
3EDFAA48
3EB6F4F7
3E6F8485
3D152EF9
3C0E5951
BCC9A87A
BC10B84E
BDD01BC4
BDDC1F43
BE570F3F
BE05CABF
BCD7F0FE
3C082225
3C970BBF
BCB6F378
BBF3EC37
3D2EA189
3BD8661D
3CA58D4A
3D930498
3E00ED24
3E152F64
3E886AB0
3E7A4A4C
3EB69406
3EE7BEAB
3EF6064D
3F016A2F
3F10B124
3EC9F41F
3E883361
3D28ACB3
BBCC1827
3D71A077
3D88681F
BDBB52EF
BDD88E75
BDB57A75
BDA361A6
BD1EB95E
BD7AFB42
BD007FA0
BD173DE0
3CE7BF02
BC95A01A
3B0737DE
3CB732A3
3D804BBB
3E74273B
3E96FCC0
3E93EFC7
3EB005C1
3EE6FBEF
3EE261D0
3E9B4777
3EAF62D8
3E488B2F
3DD6054F
3E07CB98
3D6DAA9F
3D046BAA
3DBC49DD
BC0A60A3
BDEB7CBA
BDA5E43A
BD03EA72
3C9ECD9A
3D4B0FBC
3C983AE3
3BBAB669
3D31BCF0
3C82584D
3D202406
3C76A9EF
BC456EB9
3DA39732
3E41C817
3E82B9A1
3E77220D
3E518EE0
3E620B31
3DBDCBBB
3C7E9DA6
BD9906B9
BDCCC1BF
BDFD397F
BC9B1255
3D86EACC
3E5FF9D0
3E1EDBBC
BBCF04D0
BC9E3E07
3D2A5036
3D8AE71D
3E05422B
3D333F9D
BD08280C
BCA0017D
BCB9E29D
BD178BB3
B9F7132A
3D0AE1FD
BD391AAC
3DD43757
3DE151D9
3E00647D
3CC47507
BDD054C6
BDB48FC0
BDD4B03E
BE98846E
BE97DDF9
BEAE531E
BE36794A
BB490794
3DDC3D15
3E6371D0
3DD302DC
3D992FA2
3D0136B5
3A02F0B1
3D1AC49A
3DBFC4EE
3C785BE9
BD5C57A6
BD48FF86
3D16AD66
BC7EC710
BD3E258E
3C4045A8
BD0A809E
3CEEE69A
3D12948B
BD9C22C4
BE2A98FF
BE33E308
BE6746EA
BE8A83EC
BE75FCEE
BE8E1919
BE8193F8
BE5BBE74
BD5F0D31
3CC04419
3D2EE2E7
3D31D845
3E05C1C9
3DB72370
3C0DD0AF
3D8A3F80
3D7A84F2
BC96364F
BCD18815
BD1EBC88
3BE50C45
BBBA431A
BB9F7509
BBB067FD
BD638F49
BDB8D9C8
BDC9573C
BE21C044
BE3A0265
BDD98EA3
BE6E6FA2
BE65BF80
BE031C7C
BD667585
BD761C97
3ACB5CE2
3C9DDC37
BD92AA52
BCFB29CC
BCD538D1
3DA4018F
3D6925E0
3BD6BD5B
3DB43A48
BD0E32D7
BD2EFA5E
BD947454
BD022357
3D08572E
3D242F60
BD046A88
BC421E4E
BD2D45DE
BDF64F20
BE2399AF
BE2F24AF
BE062B3E
BDB6BED8
BDCABCD0
BD9534CB
BCA1AA93
BCA562BD
3D6EB8A1
3C38706B
BCDB52C9
BD95A7E1
BE534A02
BD927589
3D126B34
3D4BC3B0
3D41F1A8
3C07EC2D
BC894189
BD190BFD
BD7875E8
3B9C9599
3CEB9B76
3C65F7D6
BA541154
3CC19587
BD14CCC5
BE3FF6FA
BE29D694
BE260731
BDBBADD2
3D4EE808
3D9A0048
3E46ABF8
3E0A5962
3E344730
3DE2D6DA
3E0334E3
BD177615
BE19C11B
BE21CD15
BCB8D1CA
3C91FF80
3DDA5139
3DCEF2D4
3D0F5F93
3DA4E080
3C50F026
BD9AEC0A
3CC75BDC
3CB68F17
BC2E6EAD
3D0E66E6
BCD0607D
BDCDDFB5
BDFE6484
BE21321F
BDB93A4F
BCE24D38
BC8F4341
3DA81939
3E1A41FC
3DFAB9E6
3E555DF9
3D196B32
3C9A4770
BCE40468
BDBBF433
BD6C0814
3C851C7A
3CEB8C00
3DD657A8
3D998F1E
3C84730E
3CD4065D
3BEA7EA3
BD477B32
BAA3DC98
3D0B3775
3987DE54
3D38F26E
3C1BA364
BCFB2CE0
BE118C2C
BE1CBA0F
BD9DA7DD
BD077F55
3C571911
3D37E142
3C628642
3DB2067F
3D029ADD
BD9ADA87
3D26DB07
BC3BA2E8
BCE402BA
3BFE2B15
BB983BBD
3C977FB5
3D8BB646
BC39C765
3C21E586
3D0F65C1
3CC563B6
BD3B7CA7
BC921082
3D3E189B
BD156207
BC78E048
3C501E8C
BDFEE773
BE02B90E
BDB06D75
3C504F04
3CBF4587
3C9480E1
3D81302E
3D688CDD
BD340A6D
BB8CC186
BD36ADB6
3DCA756A
3DD514C4
3DDFC3CF
3DC4475A
3D2E6A46
3DD82D3E
3C930326
3D09CE48
3C609F5A
3D25774A
3B1A139B
BCC3FEB9
BD4601C0
3C8BF016
3B9EF8B1
BC7BF70E
3D050F28
BD81EBB6
BD35D7D7
BCC62C95
3D5260EB
3D835DAD
3E36B230
3E33777D
3DC324F8
3DB1ABA8
3D87E895
3DCCFEBC
3DAB0428
3DBE6505
3DB9E7A8
3E08A32F
3DCE061D
3D3CC608
3CF31A22
BD08ED3A
3D01814F
3BD41178
3D12F039
BBD4C5FC
3C90E145
BC4EA3ED
3C2B8A75
3D3F2BB8
BD6AEBB6
BDA8FDF1
BD34A008
BBE2BAAB
3DB7A04B
3DD4292B
3D971B9A
3DD1BCBE
3E000B7F
3B956043
3DFB1892
3D885050
3DB0579F
3D7DBE00
3D44608C
3D5359ED
3D3D87A5
3D6002F3
BCA2B381
3CDEF463
BD02B421
3AF8C57D
BCC714AF
BD12745F
3D05A0D5
BD4428B3
BD469727
BD1EE99E
BCAC43A6
BD09727F
BD31E286
BD486E0F
3BD5F91C
3B9119B1
39E28EA1
3D62A1A2
3D982CE9
3D707F6C
3DB758A5
3D78B4CD
3D809018
BC17F363
3D6C39E6
3D0BED13
3D19DAEF
BC8C8786
3A9B10D3
3D006C18
BD2610C0
3BD3A507
B9D7ED7C
3D08BDEE
3D15A02C
3D163D81
3BDE8307
3C54DDCE
BCF764D7
38AA2DA1
BDB205A3
3C37C06B
3D0ABDD2
BDB07CFF
BDCAE449
BD532088
BD9B2B77
BC8FE850
3D0C5F03
3D4DE409
3C8800A0
BC6B3129
BD345927
BD142F49
3B838FF8
3CF3B83F
BBD7FC3C
BD588882
3BD9E99A
3D4690CD
3CE6D479
BD3F78C7
BD32EC8E
BCF988BD
3BEF64EF
BCCA0F49
BCA1AF95
BD1EF455
BD539ABD
BC3273BD
3CAA2832
BD19D02D
BD8EBCA7
BDF818EE
BE1AA77E
BDC6B3D7
BD0F33C6
BBFE8C77
BCEB2E51
3BEE2632
3C3D2EFA
3C7C448C
BBBC3787
BCAA5870
3C0FBDC5
3CD6B56F
BC9B86B0
3CCC2970
BCEC94A0
BCAE7526
3CC1ED1A
BC6C58CA
3C8A220B
BD32F2D1
3C3594A9
BC4605D5
BBD1172D
BCCAF5BC
3D596B2F
BCE6B2DC
3CFA8E79
BC61C226
3D1445E1
3D0F01F2
3CA56EB2
BD1D3814
BBA60A45
3D138A94
3D1A03EC
3B7B757E
3C4C31DC
BCF8E6A4
BC8AFBA2
3D12B467
BD1977EE
BD251089
BBB8C407
BD279E52
3B30BB45
3CB1B16F
3C2447C1
3CBDB948
3BD4F30E
3C27AD16
3C7E12AA
3C14D69D
BB950554
3C95AA31
3C42A4CB
3C5B7419
3C533599
3CB6CB69
BCA9D969
BD086E63
3D23264C
BD2D9DBC
3B41340B
BAC714D1
3CF48727
3C46A6F7
BC805925
BD0BD031
BCBF68E9
BC052CB0
BD215405
BD0A55EC
3D2BF33B
BC8CF24E
BCF94332
3D203FBD
3CEED95B
3C398ED9
3CCAA8E4
BD09F95F
BCE4D81C
3CA7BBF8
3BE0BB48
3CC47E50
BCE937FE
BCDD4777
3C6BB6D2
BBDB247B
BD34F322
BB24F60F
BD3265B9
3C1D4906
3C3463D2
3BC1B135
BCD5CA3D
BD37AF20
BCFFEEBE
3C53AA94
BD16CB21
BC57851E
BCE508B0
3D1022B7
3CD72C32
BCF0C569
3D3FA95A
3D10A770
3CC15F50
BAEBA549
BC26185D
3C61704A
3BA37899
3C53AF8B
BD0A79D6
3C8ECF82
BD0E7376
3C57A420
3CAC3110
BCC5E48A
BCF46236
3CBF9795
3C3A8301
3C94EA46
3CD7FDC9
BD19071F
BB3F3A6B
3B76D39F
3CF917D5
3BCF1E42
BD0C46C6
3D32B11C
3C89BF1C
BD2A98D6
BBFCEE7C
3D0014D3
3CB88F0D
3D10FC8F
BD214D8F
BD28A2E1
BD0C9937
3C7D4FF3
3B8572D8
3D2BE9B1
3D78C322
BCEFF818
3C700CE7
3CABCA65
3B20BCD9
BC6FC946
BD2DCD8F
3D1CFF03
BCE56B92
3BD9A0BC
3D49FAC0
BC6AD991
3CD5D0A7
BC306D03
3D085384
BC94307E
BD45E50C
BCC667CA
3C808A5B
3D32E86B
3D35F739
BCD85706
BB76D55F
3CD00950
BD12BC04
3CC1E8CF
BC82C8DC
3D5AE0FE
BC8332B1
3D661765
BC557CE2
3C5D5020
BBDE66C7
3C1ECADD
BD1FACE6
BC56002D
BC079A19
BCCB3AA2
3D1E1D65
3C483000
3CDDFB9E
BB9B0C21
B98EB2FF
BC111AE6
3C9BF463
3D3ADA2B
3CB09E05
BC9822E6
BC2A729F
3D0BA9CE
BC3D68F4
BC2326C3
3CB41B27
3C97E9CD
3DB37ACF
3D892F3E
3CA5F1CD
3BA3BD74
3D8747A5
3C3FE538
3D4AC285
3D07611E
BCD63971
BD5B8570
BD82BF5A
BAA55577
3C1914AF
3D313128
BC107F95
BD484DAB
3C739A97
BD3B9B82
3C17C1BE
BCD11CB1
BCFD3277
BAA48FA5
BAA7009A
BD7210D2
BD1F520F
3C654B0E
3C2713D5
3D877C54
3DAA349B
3D85FB36
BD380191
BDFC5038
BDF72AA2
BD97737D
3CD2B004
3D9322E5
3D277B5E
3D71211E
BC0C8C4E
3DAADF63
3D6B6498
3C305C5E
BCB7B97B
BCA81ADA
3CA5F84F
BCAE8AFF
BD2AEBB6
3C6AF850
3D368C86
3CACA494
3D0384B3
3D174B6E
3D5E9263
3D088DF4
3D90DA72
3DFF627C
3B728C1F
BD0894C9
BD89C9E9
BDA1AC81
BE2D6314
BE4744B1
BDFC5E81
BE0E0F16
BBC63AC8
3D506F5D
3C0EA52A
3D3D86AD
3DE16DA7
3DC9623C
3DBCC75C
3D29D879
BCFDA6D5
BC55D401
3CC5C4DC
3B1B6A1E
3C51BF47
BCF0455A
BC95895D
3DB78C20
3D8E8253
3DBF571C
3E037D79
3C8A2961
BD4EF98C
BD2AC81C
3C0AF248
BD78E129
BE0BEDA0
BE4C9FBE
BE2D844E
BD7CCEB5
BC5FC92C
BB038331
3B13F44F
3DB2EC5E
3DEABB0C
3DD62238
3D1A2952
3C8FE8EA
BBE72940
BD14DC48
BC84F483
BD222D97
BD4AF17F
BD3FBB68
3D520FF9
3C8861A7
BD364959
3BF14D2B
BDD195A5
BD6BAA58
BD6993A7
3D4A0768
3BDC57CA
BD24673F
BE219C4D
BE026E1E
BD7BE78C
3DC83956
3D9DF2AF
3DE19F94
3BD7FAC3
3C478BE9
3D99E9BF
3DA08F8D
3DB80405
3C2C4E4D
BD08280D
3C1475BD
BD134700
3D1EBE01
3C3C04DF
BB4111D5
BD3E5649
3C892F57
BD430858
BDB4FE0F
BD23C1CE
BD80D1B7
BCD14C7E
BD7C85C9
BD0AF338
BE01BE2D
BE7EA5FB
BE54BE32
BC0E2242
3CF0577A
3D8BFD4B
3D6C9CF6
3D446D09
3DEC8A1C
3D5E3FB8
3DA452E8
3D1D2F58
3C782321
BD3AC0C6
3D1BC036
BCACD166
BCF1C8BD
BD483660
BC55AD2E
3C4A3952
BC57D5D4
BD22CCC5
BDAC0F33
BCC7F0FD
BD8762A6
BD8F6756
3C44A8AF
BC966D02
BDF34796
BE86A8CC
BE3D4876
3BA587CE
3DC792C5
3DDBECC5
3DBB4D42
3D4F93DB
BC9F026A
BD35FAE2
BD295B67
BCBD76A4
3D1E2B56
BC5D0516
BB560077
BBB8E036
3C35C0CD
3C6D9C8D
BD1FB670
BDCD1DB6
BD97DA76
BDB00DA8
BDBA9ECC
BD8615EE
3AF518A2
BC9B8901
BB5DD18D
BD417199
BE32B398
BE803D25
BE664A93
3C830438
BC575E4D
3C448976
BCA8EF8F
BDF67BD5
BDC49C19
BDFEEE28
BDD57973
3C95ED6D
3D09DDD6
BBD37CC1
3C0648C2
3D37DC99
3D248E30
BCD4DDF9
BD0BE650
BD7C1177
BE0F121F
BD23A0F5
BC3BE0D0
BD14DBC5
3C3F34FC
3D4AA459
3DB8CB08
3E2EBA94
3C7BBB66
BE39AB35
BE25FE35
BDA73D11
BE016396
BDCBF0AC
BDD33034
BE0F9130
BE260BA4
BE0BEE4F
BE029EAC
BA80C40F
BD13AE20
3D04B6D1
BC035107
3D376011
BD17482A
BCCEDD2E
BD897D44
BDFCA936
BD5D3ABB
BC21198C
387B63D8
3DB72139
3D7DB51A
3D1D0037
3E3F4261
3E4BA646
BC433C31
BE37FFF5
BDE4C53A
BDAD2CF7
BD856A24
BBE29FC2
BDC49F5A
BE1CDD8C
BE25630B
BD920BCA
BBFAA527
3CBFFFCB
BC42B381
BC9FA77C
BD1D66B8
BCF6D1C5
BC368C87
BD088549
3CE9D690
BD5BA85F
3D15E5AE
3C9D3F0E
3D60EC64
3E0DD230
3DC910DC
3DC651B1
3E32D903
3E3C90D9
3D5D63EC
3C163102
BC3409EA
BD4B64D8
BC98A65B
BDBD01AA
BD3F65DB
BDAC71E4
BD5BB2AD
BD9CB679
BD5295E9
3CE6DC17
BC83B58C
3C984070
3CA2AFFE
3CB95AED
BC99250F
3A04AF27
3D7C0222
3BE67495
3D952B37
3D2EF446
3CFE326F
3D8BBC63
3E02289F
3D33C8D0
3D15BBCC
3DE4C04B
3DBBC478
3D890022
BD28AFCF
3D27EB11
BCA157B9
BCA7F3D2
BD76D9AE
BD4960BD
BC49C640
BC2489E2
3DB4C4C4
3DBBF8B6
3C1923E0
3D45E098
3D4ABFDE
3C7E35F3
3D24D12B
BCA4AF40
3D939F98
3D97520F
3D3664E5
3C6815B5
BA10C08C
3CF6545F
3DC066D5
3B778012
3D830120
3D8DAAB4
3D8E986A
3C0AF4B0
3D1B060F
3D6DE8F9
3BE3E095
BD2EE7B3
BC9F2048
3D2EDF86
3DAF616A
3DAA5525
3DDA10BC
3D3CF303
3D260FE6
BC350B94
3CC1B57D
3B78FBDF
BCEB7CD5
BC517B17
3C63D35B
3D08636E
3DFEA253
3D8AD430
3D0762D5
3D3A9713
BC57E816
BD82A277
3CC4B437
BBD7165F
BC18A53F
3CCD29C5
3CE673E6
3D436243
BB847657
3CBF2AC7
BA940600
BC4DAC2D
3DB18116
3DC93AA1
3D9896C0
3D5E1C0B
3DB043C5
BD192480
BB2173E1
3D044D0B
3D02E2BE
BC82F86A
3DBE7BA9
3DEF4D61
3DC5205F
3E12C8DE
3DB5143A
3D0EA523
BCDB82E7
BDA423C8
BD709E18
B82098B0
BD3086AA
BDC0F402
BDADFC03
BC52B1FF
BDC78591
BD8D80B4
BDAA79D1
3C6CFECE
3D524570
3E07B2BB
3E2835A5
3D7760D2
3C9E64D9
BD24306D
BD33E77E
BCEA7BF7
BB806975
BCDB1A7B
3C9B7EB0
3D867A40
3DB4AE6D
3DBCB709
3E11450E
3DC37CEC
BCAEF28F
BCCFDA9B
BCD42AD1
BD926EFC
BCA3C345
BDD14091
BD94808C
BDCC9C8E
BD97EA38
BD80DBA3
BDC43F5F
3D9F5136
3DE5CFC9
3DA71E97
3DBB7C89
3CA739D3
3BD50409
3B9C027B
BAD53442
3CBFA9FC
3D0F3D2B
3CDB9BD6
3C31832E
3DCF74D6
3D78EF4B
3DBCB553
3D7B760B
3D11FDE2
BBA55803
BD632677
BDAA8E0D
BD9D762C
BE46B520
BE27CC7D
BDA72717
BD45F3F9
BD852A1B
3D46883C
BD35421F
3E0DE6FC
3E1DA4DE
3DB5552E
3D9AFA27
3C0EC25D
BD235A11
3D25B5E3
BD121BEF
BCBE6409
BD3862E3
3C592AD6
3BFD3FA7
3D860715
3D5E2BBA
BD02556C
3D3DB67A
3CFCBEF8
BCFD8BB2
BDC0010D
BDBB2DEA
BDD677DE
BDF01647
BD8923AE
3C5A7ED8
BDD03069
3A8E89BD
3C17371A
3DCDE504
3D97038C
3DD43BD9
3DB1B8A9
3DAD6C3F
3D04B8E9
39C39680
3CA45B5A
3D0B4516
BCAE795D
3C498E71
3D4EC882
3D107F27
BCEA1A68
3D402335
BD8CD86A
3C567AA6
BBDDACDB
3C98B43A
BC04F1B0
3D37ADDE
BAAA81F8
3D318FA7
BC3CF590
3CAE74D3
3D43EB45
3D2D4DBE
3D8DE279
3E11BAFA
3DCD06EF
3DC30FC7
3D27D3D8
3D8FA422
3D12407E
BB889B63
3D1FFAC5
BD149D75
3C666046
3D3EFA60
3C95D1DE
3CF5F17F
3CD202B7
3B27C6C8
BCD47FA7
BC103649
BD33FFD4
BCDFED58
3D06F7DD
3C19BC6C
3D4016A1
3CD3B15A
3D910CEA
3C94D42F
3D10A8A3
3C93FAFF
3DEC9DA3
3E1353DB
3D913E6D
3D21D97E
3C92DAE4
BCB10C82
BCF8D3C4
BC17E0EF
BC3C0445
3C68FC5E
3C642272
3B28EBBD
BC58FE17
BC108FE8
BCDA8797
BC00DD6D
BDD7C3DC
BBF04102
BD7F42C4
BC9FD5DA
BC5EE820
BCE6E3ED
3B6A5B79
3D852C96
3DEF78F5
3D636669
3DD4B253
3D88E03A
BC8E9512
3C47268A
BD22ECED
3C48125D
3CE1E4FD
3BC54005
3D28D55C
BD26D81E
BCC8C119
3D36623F
BC6A6257
3C40E9A2
BCE278AA
BC6DF4C5
3CCA4345
3C734D2B
BDA466C1
BD51A57B
BD011E48
BDD6D6BB
389C980E
BD5C55A6
BDAAF975
BD151A16
BD95EDE5
3D1B376C
3C861B61
BD8BE6F2
BDB16F3E
BE0CA584
BE0D07D7
BDC70221
BC0B164B
3D148BF1
BD135025
BBADD349
3C8D4114
3C2B602D
3D10012C
BD19D7ED
BCEBC460
3ABC5880
3CECABFB
BD3B3F32
BC3E87CA
BD6E3700
BD2D106E
BD321E47
BD5C0F24
BDD4B687
BD3856D7
BD688C4D
BDEBC2E1
BE1FC12E
BDDA1FB5
BE06D711
BD60B0B3
BD0CD209
BCFF0316
3AB937B2
BC52E771
3B11C895
3B57D1A3
BAEF29AC
BC87A411
3C0EF33A
3D40EEF8
BD17A82B
BCC4E410
3BEFCB58
3CD821E3
3C9B546F
3CA9E433
BCEAB641
BAD83D21
BBE51E80
3CDB3574
BD40FB0C
BC678010
BAAC931C
3C82890D
3CD1652A
3C271097
3D123888
BBB381AA
BC504E1A
3C83AD56
BCE5B5FB
3C04FF8D
3CFDFDCF
BC66E5BB
3D28730C
BCC262F5
3D2D394A
BC756679
BD1002D0
BCD42613
3D325E79
3C9D5AA6
3C418C13
3CED3CCB
3CB829A3
3D455512
BCA72878
BD285B40
BB502EB1
BCFE788B
B93FC1F9
3D3382BF
BC6F9816
BCD27B73
3C37D9F1
3CCE917A
3CDEBED6
BD012539
3CD25277
3D0F08CC
BC68F3EE
BD425F33
3D1BD416
3D032717
BC6A527C
BBFBF83A
3D3F1B25
BD0243EB
BBA59322
BCD0C740
3CF134B7
3D4279FE
3D1740D2
3D1867B5
BD1F8BEE
3D3A0EBD
BA31C202
BC46D488
BC704444
3D3607AE
3CC26CDF
BCCC4144
3D29F3F7
BC910959
3CC040DA
B9F46F9C
3D111AF0
3D169D3A
BD4408E8
BC4490C9
3CA4E765
BC06278E
3CCB18FA
BCFBDA0C
BCCC3640
BC8C12CB
3C4C787E
BC06D177
3B8AD3FF
BC48B256
3C93CA62
BCE24E68
3D2619A8
BC602422
BC72CE16
BC286BE3
3CBEA0D7
BBAABD54
3D515872
3C8126D8
3D5698C8
B8C599CA
BC1A9DCF
3B83735A
BB46875F
BCCE2F49
BB899CA1
3D3E6CDD
3CCB6170
BD1249F6
BD0DD6DB
3C8F09B8
3BFA7AE1
BCE0C224
BD12FA83
3C9A1AFF
3D234261
3D1D2037
BCEC9B21
3C7F4493
3C8CD4F7
3C90E1C0
BCA46BE1
BD1C0466
B994B9E9
BD1C2387
3B017C6B
3C210516
BCD76008
3C4A34A7
BC19ACC6
BD0C9D0D
BC116793
3D8181B9
BB0B7C18
3C949D2C
BADFEA56
BA83876C
3BA484B8
BCB58019
3D0095D6
3D230AA0
3D020C0A
BD2BC49B
BBBB7F60
BC846ABF
BC7460C1
3D487B21
3C20DEC4
BBF1E787
BDE79B1A
BDA884B5
BD643366
BDC97977
BDE045AD
BDBF75F7
BDB682E2
BD90211C
BD6EDAE5
3AA3F295
BDB1CD96
BDAFD6D0
BD89B1DD
BD818652
BD5AAA77
BD087F4F
3CD17433
3D45F07D
3B671FB8
3ADE7C25
BCAFEC9B
3AE0A6DE
3CFA21D6
3D8389A2
3B3B28A1
BD6F0737
BDCCC4B5
BE30A017
BE3E646B
BE026E86
BDCADA95
3C923475
3C2559B0
3D30E08C
3C0F7724
BDB640CD
BCAD64B5
BDDC372A
BE045B7A
BDD9C71B
BE005E8D
BCE9E5EE
BD5DACE2
BC2D6458
3C8F4496
3CF8BB46
3C5FD06A
3BBA3B84
3D019D09
3D3C730F
3C81CB27
BCD37908
BDAE4D62
BDBF9022
BD850603
BDE02F45
BE072641
3AF3974A
BD401B91
BD241E29
BA4C5C74
BD84661B
BDF0E393
BDDB0124
BE22FB48
BD72F819
BE08EF81
BDAF0486
BDB315F5
BDEE92F6
BD10F190
BCFEFEE2
3B949056
3C12C384
BCC8B14C
BD1E4A3B
BC4E6AC0
3DAD1DB7
3C147801
BD05E88A
BCB11AD1
BCFB2DB7
BD86EF1C
BDD66A0D
BE440334
BDFDE4DF
BC7D293C
BC4C5EBA
BCB47EE1
BE3BDFDE
BDA27A0E
BDF3C370
BDBA62E3
BD1F747E
3C9A8AB0
3C87EAD2
3D090907
BC6CD8DB
BD8901F5
39ECB2B7
BC9ADD27
BCF59411
BD05EB21
3C992FBA
3CDF8E2B
3DE32D8E
3D1F7CB6
3D304B72
3DB161D9
3C57ECF3
BE0A5851
BD464B53
BE5CC227
BE1300D9
3DD97944
3E0FD711
3E0511E2
3D250517
3D656570
3DBAA7BF
3E599F1D
3DAF6D9D
3E51BE8E
3E18B286
3D584F71
BD6DDE79
BC8BA300
3CFCEB1E
3D01F42A
BC894FCE
BC2A1C17
BCA47FE4
3C6131F4
3BC59CF4
3D051DBB
BD261C4F
BCD91898
BDE2E79A
BE09D9CC
BE795558
BEBE5D15
BE221E68
3E124842
3EB1790A
3E910DF5
3E8C3FE4
3E81557E
3E89AFEC
3ECB16CC
3E836A62
3E6315C1
3E649D46
3D5FA91C
BD9D76CB
BD93CF0A
3CB6C90F
3CEC5E25
BA622684
BD48642A
BC2B7137
3BA2C06C
BA8E316C
3D70C489
3A89C413
BD84B075
BE1FC94A
BE8CDBB6
BE9518B0
BE9A47C3
BD9D5044
3EA36288
3EBA4C41
3E95DB62
3E8F2406
3E99369B
3E9ECCA4
3EAF86B2
3E5743E4
3E458ECE
3E447F36
3DE035B6
3CA26CDC
BBB5EC48
BCEDC095
BC0496D4
3D14124F
3C316650
BC389DB3
BD0A7627
3CD369E8
BCD619CA
BD7F52F6
BDEE8D3C
BDF41B41
BE05AF40
BE42961A
BD72B308
3E0AA2D2
3EB6812D
3E868931
3E0A9CBF
3DAC8D01
3E0A6AF5
3E206F13
3E5898BA
3E4CDB1B
3E56FE55
3E2830B8
3C907B48
BD02A556
BD4D7E0E
3D3BEE2B
BCA4C0F7
3C0CA674
BC8813FB
BD4C36FA
3D053C46
3C0EAB50
BD94843A
BE33AB13
BD7ADBFF
BDBA468A
BDF66718
BE30FBCD
3CC3082E
3E48B04A
3E2D0F59
3E62344A
3DF01FCC
3E12264E
3E07C709
3E02567F
3DA274ED
3D0E3A9B
3D95D562
3CDB05D5
BC323271
3C5D585F
3D75C7E8
BC83941A
3C7A0C96
BD02AA04
BD04BA6F
3CB7963C
3D2C4E81
BD61300B
BD54D590
BD2A9CD4
BE0551FD
BCB83F06
3C84B3CC
BCB135D7
3B280C17
3D8FE29D
3DE37D12
3CA7038C
3DB0A0AB
3DE518F0
3DCC4439
3E3B5006
3C7BC542
3D0C0D04
3D2E77E6
3CE77FC8
BD90A009
BD12ED90
3D3E2A02
3CD30477
BBAF0DDA
3D191000
3BC76604
BD2F5CE7
BD04E993
BDA74C43
BC4A8A23
BB5655BA
BD2EFAEB
BD2AF80B
BC40756F
BC859AD7
3D032E49
3DA94FC2
3DD9BC9F
3D2B8F94
3D138534
3D89138E
3DCCCD77
3E0303C5
3E250273
3C91D310
BCAC0A80
BDB08F30
BE0BA111
BD266B14
3D89DB85
BC8D77F9
BC414A59
BD2F4F34
3CCF5FB6
BC3E5C14
BBD7B419
BD855E09
BBF63843
3D53BFB7
BCA81E45
3D27A360
3D2ED74E
BD8ED9D9
3C8B250B
3D3AFACD
3D629389
3DF36CF0
3DC4BD30
3E0935C3
3E0FA099
3B2B7B20
3D3EDEB2
3C80C9A6
BD56E5E2
BC4D481D
BE26FA13
BD6FC211
3D94D365
3D7276ED
BAEF0C95
BCED4FAE
BB0B7F7A
BCEDA0A3
3D1A38A0
3D44E6DB
BA8A6918
3D4ACE6E
3E19ADBE
3D8302BC
3DFDA2D0
3D73E2EF
3D64B587
3D91F48C
3DE7C70E
3E782418
3E3953A3
3E3A364E
3E14DAC0
3D89885E
3B65D1C6
3D7F15C0
BA9C534D
BDFF0BD1
BE04352F
BD189E6F
3D2A39DB
3D25EF11
3A4843DE
3C1C9401
BB8297C6
BD4ECCE5
BD2CC729
3CDEC725
3D64E226
3DB0769D
3DB13C1C
3DC48F72
3DE71BAC
3D80307D
3DCE60C5
3D925C0B
3E77BC47
3EA94C3E
3E9C6E15
3E7A8082
3E008CC8
3D1ED823
BD8C81F8
BB349B38
3CAE3401
BDC1D2B0
BDA818AC
BD4B6B20
3D3E5F8C
3C5BCCA2
BCD08C26
3CFA16C2
BCB12CA5
BD2E7AF8
3D058D1D
3D65E086
3D8B0EB9
3E0B0B5A
3E192B3D
3E3D4D00
3E512C78
3E00617F
3E7885ED
3E67B182
3ED3B3DB
3EB781CE
3EBF32F4
3E601EC4
3D8DB9EE
BD447F2F
BE0710A3
BDDFD48E
BDF99F2E
BD6B789D
BDDF1FBF
BCDB844B
BC14BF76
3D50488D
3C0308F9
3CE9A062
BCEF979D
3D13E254
3CC097D9
BD1AE1D1
3D05861F
3E19EA2C
3DD617DD
3DC4A1DE
3E59B240
3E618AFA
3E321E9C
3E6B9D80
3EC923AD
3EBB3EF1
3EA97A8C
3E5891A3
BD5ADC14
BCDE376D
BDD70474
BDEB0A7B
BE055C6B
BDAA5CD3
BE02CBE7
BD26457B
BCAA84D0
3CA7E15E
3CFC6FB1
BCAC6EB1
3B8940BC
BC54C98B
3C71C9CF
BD40C34D
3D38564E
3DCD5C1E
3E0368C2
3DE38832
3D5255D2
3DCD4D4A
3E04CD3C
3E21CF13
3E488BF5
3E88FE88
3E15C9F4
39ACAC8D
BC9B672B
BD8C97E5
BE14F5F9
BDF955F7
BDAF545F
BE436D4F
BE1284EB
BD9F9DD3
BBDA184C
3C4F8DB2
BD055760
BCB86EDA
3CD83B3A
BC8D68F7
BD2CC9E0
3CC297C2
BC777E04
3DCC3D07
3D98F970
3DB76894
3E118934
3D8AA811
3D5EA61B
3D811466
3D53C79D
BAC8B587
BD8C6C9E
BD938C98
3D489595
BE17B28F
BDDCFEE9
BDCB796E
BE21D25A
BE15A065
BDBC7525
BD67A406
BC8EBCAA
BC32F7C8
3CC1E375
BC80C694
3C557C09
BC937A15
BD408C16
BB96CDE5
3C646A93
3DA36221
3D854783
3DD82F95
3D8EF467
3DB040E9
3DE618BE
3D9A26A9
3C7AA825
BDB7C5DB
BD8B7096
BDCE67C3
BDB0AB7B
BDDF687F
BE17F963
BE17B577
BD29EEE9
BDDFD885
BD7B7B13
3D097DB2
BB8AD087
3CF8A738
BD22CE69
3CE491E4
3B87E93B
BD262AD6
3D338B53
3C0CDEAA
3A9AE230
BCA2C99E
3D0900F3
3DC891ED
3D6423BE
BCA01E09
3D200B99
3B948278
BD9B12F6
BDDFC429
BD85AE41
BCBA893A
BD5D4944
BC290517
BDA30FCD
BD31BDCD
3D1108FF
3CA8D3DC
3CD23D2D
3C0E82E8
3D2F9AEE
BD336E1B
3CA5B4A8
3D070643
3C180FC1
BD0D70F3
BC727B50
3BF3E317
BC0B06FB
BD07E4A0
BD175FEC
BD22C083
BBBC458D
BCC35EEA
3C1DE8F5
BD3E2E1B
BD47A113
BCCCAD78
3D408C16
3D4EEF41
BDCA2CFB
BD3FC96E
BDB5DCD6
BD661E12
BD071BEA
BD82CBAB
BD795238
3CC40F94
3D303361
3D0B05A4
BD00A791
BCC975DD
3D331270
3D16A12D
BD0F9EB2
3D056638
3D49813F
3C9BBD9E
BBE3487A
BD7C5098
BBB550B4
BD79BCEE
BDC3AAF9
BE097FF5
BE0C1B11
BD5D054A
BDA0B7DF
BDDFCC53
BE154A17
BDCFDCE1
BDB5F264
BD809C46
BD921D58
3B60C019
BD150E53
3CB04B68
3BB18F89
3CED8B74
3CE87B31
3CED20B3
3B0D9A8A
BCF6186B
BADD86E5
3C2A9620
BD1D45AC
3CE20745
3CF57A8C
3D148B01
3D2357BA
BD24ECF7
BD96D90A
38A7E464
BC90E327
BD9BC4AD
BD2D02A7
BD574084
BBA777D2
BC4A3B21
BDA93064
BD312F4E
3C92EC75
BA417D0C
3CD8C97F
BB7CD7BA
BC97C43C
BC8B3867
3D2D4C54
BC67E8B7
3D0D5BB2
3CEC0714
BCA80EE1
BC415109
3C9B940B
BC52C16C
3BAF6186
3CFA1F2F
3CD25196
BCD9A2D4
BBAFF3C6
3D04969E
BCA8BC8D
BD477C79
BBC95B9E
3D378A12
BD1B229B
3D11C625
3D1835AA
BCDB7732
3C792B5D
3CE1FC01
BB14574E
3C80A31B
3CE47CDC
3B0A8582
BD20D85A
BC2408B4
BD0F4B99
3CF3FDCB
3D32D46B
3D10C98A
3B8BDCAF
BCA1048D
3D2296DA
3CFBB8C0
3CD987BE
3A4965F4
BC932A9B
BC8F0E9A
BD07355A
3BBB318A
3D2DBCB1
BD2D758E
BD2F1D3C
BBE5E078
BAA2C9DF
BCFA46F9
3AE86456
3D35B288
BCA930E7
3BB5FEE5
BD3B9D19
BCCE7DC4
3D45C813
3D3DD5CA
BD08A96A
3D21626E
3BC45A90
3B7AE4D1
BC23B2C6
3AF0A873
3D22DC30
BCB75715
BCD35235
BD4382C9
3C0C55E3
BC56DE33
BCA17C0A
BC49D27E
3D2E9851
BD0ACDC1
B9BB7FF9
BD2D94AB
BD1572CC
3C4045DB
BCC5B365
BCC183C1
3D15696E
BBAC5371
3D1A1F6D
3CA7EE75
BD182FFD
3CCE62F1
3D135017
3C3DDD9C
BBF60438
3BFF649A
BA531AD7
BC27E6E2
BD4DC6BC
BB113E58
3C40C30D
BC91FE32
BD626E75
3D2105EB
BC78CEC6
3CF333A4
3C7618E7
BC0D6689
BD253A84
BD1127FE
BCDFEE13
BD891D13
BD1D9A03
BBDC3B9A
BD12A87F
3BE83D87
3CB0591C
BCC5D276
B8471F71
BCE432A9
BCBC97EB
BCD6260E
3D18114C
BD378006
3CBADF7D
3C5042BC
3ACB3ACF
3D7CE651
3BE02D0C
3D72D649
3DA15B69
3DA8A0A7
3DB67967
3D321000
3C2EAD5E
BB08823A
BD04A834
3CF72C43
BD5BDFC6
BD9F2826
BDF11AB8
BD05A1EA
BD5BBDAF
BD11E587
3D466663
3BCAE259
BC60E5EF
3D394518
BD44CE60
3C20C89E
3B8552F2
BC23EA75
3B1A7CED
BC7ECDA8
3CEFD73D
3D745EB9
3E0ACA8C
3E2B156D
3E6FD843
3E62CE66
3E4D06C1
3E86C982
3E5D2D8E
3E1A6351
3D5C2F03
3DA6F7A1
BD06907C
BDD37D81
BD789D8F
BE15DEFF
BD9F37D1
BCE648F1
BC3EDB98
3D76F263
BC5D64AA
3C202600
3D379529
BC0834BC
BCA8F758
3C9AD210
3BC6E908
3CDB46BC
3D2039C5
BC5C6B05
3D874CC1
3D59538B
3E50761C
3E4AB541
3E96BFB1
3E0F2720
3DF90516
3DCB9846
3CFDD561
3C1ED4B4
3DACB8D4
3D13344E
3D1A3955
BD8F5E96
BDCB9154
BC5024BE
3C4DF6DB
3C603CEB
3CFCB807
3D20D4F7
BD2927F3
3C835698
BCAA94E2
BC72BAB7
BD139466
3CEFFA91
3D8680E7
BCA462C8
3DAB6D78
3E61FF62
3E8D2710
3E6D90E5
3E899023
3E2C3D52
3DCE2A3C
3DA5B743
3D832C2C
3CFC77AD
3D6DE3EC
3CD37139
3D0358B9
BD75E323
BD886CFB
3BD47A60
39C39F1E
3D26CB07
3CF6F50F
BCABF0F9
BC915B38
BAF2A099
3D2C9A81
BC9CCCFD
3C4C7A45
3CC6286E
3D58FD16
3D29BB54
3DB7230A
3E5BAE1C
3DE4BE82
3E67524C
3DFD48D2
BD9A7C20
BDC4D836
BCD6D296
BE22C3B6
BD0BF281
3D30970A
3D808756
3DD6A50E
BD360906
BD971F80
BB150981
BAD1EBCC
BD4BF455
3BA2BB4B
3CFCC95B
BD06B4B8
3D26BF7D
3CF63913
BBE49F32
BC46302B
3D0AA107
3D953955
3E0733D1
3DB50C08
3E4231E9
3E32A059
3DEB99A1
BBC49C5D
BC6AC6E7
BD9D392B
BCF95572
BCA7D903
3E06B67B
3E0D187F
3E092D69
3DB23A4B
3DBDBAA0
3DB337EA
3CE1A727
3CC0C569
3DA3A501
3D22621F
BC90F30E
3C59EEFE
3D0D65D4
3C8C6F42
3DAB95B0
3D2ABE2B
3E07BE4F
3E1B41EC
3E0F66C5
3E0D868A
3E8D0ACD
3DCDE75A
BC27A285
3D05D9D7
3DCC3023
BDFE132E
BD6B99EA
3DBE09D8
3DCD99A4
3DFF8F9E
3E054183
3E126B3B
3E3804D7
3DCFEC6D
3E2021DA
3E01D883
3D96D074
BD1724C8
BC203AB6
BCC27AE5
BC18BDA2
3D08967F
3D1AA2D6
3CF0B1EA
3E4063FA
3DC35703
3CAC1AF4
3E0E125D
3E4EDA80
3DACB87F
BD411F3F
3D7747DC
3DE6B72C
BE105B49
BC815253
BA802A8E
3D65241A
3CDC67FF
3E54A439
3E7C0945
3E3F99C9
3E9EE377
3E648E12
3E2CA857
3DA1C7D2
BBD19817
BD0814B3
BC83FBC0
3D8C3D7E
3DA51CEC
3DA36160
3DDD9301
3E0B891C
3CF361AC
3D872A0C
3D8C12E2
3CBF63CE
BE229673
BE45BA1D
3CAA36D7
3DA22F88
BDDF8B53
BE3DAA19
BD61813D
BC35F01A
BCB68A69
3E2E116C
3E81EC76
3EB839C2
3EB3AC23
3EB90A50
3E2FD8F5
3DC3A33D
BBBE2A7B
3C528C6C
3D4642B0
BCCF9FB3
3D7985A7
3DE7F002
3E25E554
3E103F9A
3DB98732
3DC51EF3
3D7008B0
BE3D6040
BEF2638C
BECAE3F9
BE6C20D1
BCBFB033
BE0D4939
BE020CD1
BDDEB24F
BE6700EB
BE30D23A
3D072ED0
3E20CEDA
3E70FE00
3E94E149
3E2FBE62
3DC475E1
3D961F79
BD13824D
BCF01758
3D259949
3D220A4F
3D71E7CC
3B166F9F
3BD80E01
3D7C4916
3E03D46A
3D2983EB
BD934CD3
BEB9A167
BED0BB49
BEA6942D
BD66D7C3
3D94470E
BE025381
BD62275F
BE1BF1BF
BE8BFB9C
BDC1D05F
3BE93F35
3D7C768B
3E2E14EB
3DD77153
3E1447A1
3E248A3B
3DB6E77E
BC6ED1A4
BD25BABF
3BBD3833
BCF71085
BCFAB8C4
39AD8714
BDBB2A21
3DC2A7A8
3DA4166A
3D0A2835
BE328CEE
BE8ED1F9
BE838855
BE07411D
3D62B5DA
3E10ED58
BD8FEC09
BDBEC9CB
BE1D9106
BE8414D3
BE5E8BAA
3CE24D92
3D8F3636
3D2C7A5A
3E0743B2
3DB8ECC9
3DB00EB9
3CCAEA9F
3D32F6F7
3BF14EE1
BC2D3877
BCFCA7DF
BD413062
BCC2575C
3D03FF48
3DF86B9E
3E21A9B1
3C4CAAD4
BE2FC929
BE94E1C8
BE8DEA76
BE4B0AF1
3E07DE4E
3E51CC84
BDAECDE8
BE68732A
BE96BAF4
BE479053
BE2D0A45
3D0BC5B5
3A046986
3D3247C6
3DEDAA46
3E3B26F0
3DD34492
3DA07437
BD10E2B6
BC007A50
3B4F5CEC
BD3EB5EF
BC769AA2
3D7D515B
3DD97FB6
3E6B686D
3E271252
BBDCE24E
BE25D157
BE46BA46
BE93F495
BDD5613E
3D8F89B0
3D848A78
BE14E1F2
BE9F045A
BE8B9520
BE05EBAF
BE071FC7
BD9C271F
3D1E5E30
3D9081CB
3DC3ED1A
3E07478E
3E06215F
3D6A478D
BB46B44E
BBFCF958
3D2A9654
BD28435A
3D90A0CE
3DAB4596
3DF48D5F
3E917A61
3E87229A
3E3113FE
BD405693
BDCC1EE3
BCC21B27
3DAB557D
3E149409
3CD461B4
BDC4412B
BE3A9DCD
BD8C0453
BE237065
3D09F7CB
3D1B0496
BC075B8B
3E16FBEE
3DF5765F
3E099475
3D28D09D
BC80B402
3BE8F8F5
BD2C6C40
BC92308E
BD4C81DB
3D5E3614
3D853497
3E0E918F
3E35D287
3EB06341
3E9807F2
3E693703
3E3041F2
3DD58207
3C6CD404
3DBEF6D4
BC73A8D7
BDFDC5D2
BD3665DA
3DE72779
3D2AE110
3D29D8BE
3DA21B44
3E2A1ED6
3E525FA2
3DD96BF6
3DFE53D1
3CE86D07
3D19464C
3CF0273C
BCD0E780
BCBF233D
B9A47795
BC351EC3
3D29B16A
3DF83A57
3E29A417
3E5994AD
3E7F3473
3E79D41D
3E600CFA
BCE4B19E
3CAA7AE5
3D584CE9
BD984706
3AE78FD9
3D86D08F
3E3E833A
3E31124A
3E1CCD1F
3E1B1613
3E153285
3E98C8DF
3E25B8EB
3D046390
3D8A70FC
3CBAC026
BCA5FE51
BBCE98F7
3D172ACF
BCBD4CF7
3D8F92D3
3DB48D2B
3E2BED7D
3E5A5656
3E682960
3E8A0FCD
3E763CF5
3E5E197B
3D02C73E
BD156E49
3DB43B86
BC8A330D
3DEC8540
3E3976C3
3E3D7FBA
3E5A9F63
3E20DAF9
3E4BF9CF
3E51B9C8
3E5955A3
3E358D47
3D32802B
3CCE0DE3
3CDC442A
BCEB0561
B9AE8EBD
3CE393BA
3D3FE38E
3D2E71AA
3D2567A9
3DE67AA9
3E680224
3E3DED4E
3DE81FD6
3DDEA4FA
3E23871B
3CEAC8B7
BDEF0BD2
3CCCD6B1
3D71B1F9
3E53A252
3E504363
3E0FE8BE
3DEED398
3E15B195
3DF8BD86
3DCC3178
3DA1C88B
3DB3D8F4
3D18813C
3D605670
3CD89514
3D068051
3D045DC1
BC3570BC
3BA25F9C
3D624495
3DB81ED7
3DB9F620
3E2CAAF9
3E19FECD
3D922FEA
3DEB5F9C
3D5E0D07
3DCC01F5
3C8C2F42
3CDAB027
3D455BBD
3B939DF8
3D8E78D6
3E0F41D7
3DEDD8DB
BB0DC2DD
3E00C0A9
BC40326F
3D313CE5
3DB686FA
3D574DD3
BC043F8C
BCD9BA54
BD408E44
BCA3EF3D
3CED08D4
3D44DE57
BC9D8D88
3D0DE652
3DA5A79A
3D8562ED
BC5361AC
3C0F1C35
3CF62B1C
3C36569E
3DB56936
3D0873DA
3DCD56FB
BC9CB20F
3D8B646F
3DD834CE
BC228DD4
BCBEC686
BD2EF306
BD34034D
BCDE6F0A
3D316B04
3AC96085
3C9504A3
BD2D1B8E
3A2D4DA3
BD06A2CF
BB758791
3C7F4CD6
BCD60DC2
3D482F80
3D2445E7
3CB9E200
3D40F3C6
3DB290AA
3DBD2185
3D40F04C
3D2B9F7F
3C705274
3CF16BF1
3C8AB9FD
BD1B6809
3D124D48
3C08E5B5
BD927DB2
BCB840ED
BD19FB91
BC08783D
3BD212F4
3B037C86
BB289011
BD26FB3B
3CADC18C
BBD2FEA9
BCEECDE4
3CC230D9
BD2AA3DC
BC5A4C1D
BCD59FD7
3D147BD1
3D0D7B81
3D06CD7F
3DAB6BB4
3DECDA0A
3D9D76B9
3D993C4B
3D09083D
3D855AC1
3DBC7494
3CB97F2F
3DD9E6A5
3E23C682
3E0FAE5C
3DF1ED64
3D8BEAC8
3B6D5805
3D21711F
BCABF2BB
3C9FEC7E
BC91F48B
3D18920D
BC0A2F61
BC6A2B15
3D051A37
3D135A60
BD2298AB
3C9A7546
BCBAFE7D
BBDDF5F0
BC242A28
3D47AEEF
3BE1A22E
3D5DD017
3D3E047F
3CC22B08
3D9AB1BA
3D55C22B
3DF42B52
3D2A34D0
3D86F533
3DB87DD4
3D62BAAB
3DC66DFC
3D67B577
3D8CBDD9
BCF183A4
3C96F1A9
BBCD9855
BBF25B74
BC9F5268
BD0BD0B3
3BE96D98
3CAFB8DF
3C3F1D98
3CC2DC50
3D33CFBE
BC3015ED
3C2ABEBF
3C74E3D7
3C6ED326
3CD694B1
3D33371C
BB84EBD2
3B058D82
BC2FC22F
3D182B48
3BB53649
BC43236F
BCEC3B7B
3C9186C4
3C674BD0
BD23EF6C
BC44BF3D
3D1ED4A2
3BA7E6CA
BC59D3D6
3B8855A4
3C8A9177
3C874E32
3B76B726
3CF437FB
BC322FCE
3BB40A86
BC8CE0B8
3C74EBA8
BD3BA7DA
BC1D825E
3C15F4B1
BBE5A5B5
BCBD722E
3C49920C
BD0188BB
BC785DAF
BC475306
BA859AB7
BBF8F7AC
3CC6DFBE
BD1F1EAD
BBFE41B3
3D08C156
BD448291
3D36859E
BD11B4CE
3D21B8BC
BD24B387
3C512467
BBD2BB17
BCC601FA
3B7C3278
3CF3FEC0
3CBC1063
3CC6103D
BD066A88
BB007602
BC96BE5D
BD18A0CB
BBC96FA0
BD1689C2
3C5DA445
BC873089
3C6F6898
3D40220A
3C506DD8
3CEF43A5
BD3163CA
BD1EC2AD
3CCA36D6
BCBD0C77
BB951BC6
BC5C5771
3BC8A825
3CC756CD
BD209357
BD03F4BF
BD3E7C67
BD28F93E
3CBA7FAF
3D0EEB3B
BD3A65DA
3D286899
BC015291
BCAE9C9C
BD2DC5AA
BCE9AA5C
BC254A27
BD2F9FC8
BBED430D
3CF7B7D6
B99F9C30
3CADA663
BC8F97CD
3D3EA79B
3CCF97D5
3B92DE4F
3C6DB4B4
3D1C8DF3
3D14C8B6
3D3D0CF4
3D220B84
3C0338A9
3C305280
3C1AF9A0
3C58418F
BD408FCC
BCCF07AF
BCCF7D2B
3CA9BCD0
BC36E95E
BCF4B88E
3C167543
BAD6A891
BD71B1C9
BD66AEEB
BD9CDD54
BDB50041
BDF5F4C3
BE1E69EE
BDF70C4D
BE0A1451
BDB9CFE1
BD84F47F
3D941C31
3DE1F40A
3DF69A27
3DE6602D
3D27D4B0
3D6B1CF0
3CC90296
BC256BC7
3C276BB9
3D465FB5
3D06C36F
BD2244E3
3D3951EA
BC498985
BD400895
BCBF9AF1
BD570FF1
BDBAAD83
BE33D29D
BE2EEF16
BE625ED3
BE836F03
BE3FA534
BE368F2A
BE4A1A95
BDC26740
BD876A79
3CD015D0
BB889F7F
3DC37754
3DCCE86D
3DA5B86B
3E01D665
3DC1F7A8
3D5995A0
3C1A01B8
3D2D67D0
BBD1676D
BD31B6B1
BCC1824B
3D118B6D
3A3CEA9F
BD12ABFD
BD8DDBF8
BE09BF7D
BE885E84
BE639D64
BE379DE3
BE7D771B
BE21840D
BE03D834
BDF03CE5
3C62384C
BDA60817
BD8715FD
3D9BD3F8
3D21F8DF
3D87AC1C
3D9D0F47
3D301897
3DCFF9DB
3E585E29
3DC55C3D
BC772BC2
BCDEB430
BD147755
BCAD9750
BBB392FC
BBFB713F
3B287423
BD34C7C7
BD579D09
BE6F077C
BE9C0A5F
BE68A0C9
BE5A6FE3
BDF1A144
BD2CC409
BD3D60F0
BD3F2E1C
3D86D27F
BDF69BA7
BDE5A73A
BD37C6CB
3CB9B166
3E08F6D5
3E323346
3D98B7DB
3DC18A98
3E3F0CD8
3E360A4C
3DD54747
3D7AB9A3
BCF6CA0F
BAF076D8
BD416A3D
3C385513
BD6AC51A
BD1000B1
BDDCA145
BE496281
BE45865A
BE177D8D
3C9B3A94
3D0A9038
3D4F7D61
3D2700E2
3D252F18
3E230B22
3D52A2F3
3D1E25D2
3E228F41
3E30FD1F
3E1AD8FC
3E52B3C4
3E068FC2
3DDA9E43
3E170717
3E1FADE2
3DCB06A3
3CE2DFC4
BCACDDBD
3CB6BED2
3D1F3C75
BD1A154A
BBDDB98F
BD74E608
BDD47984
BE3C4071
BDFDEF1F
BD98F6AF
BC74AFC0
BD7E6539
3D32A1D3
3D136959
3B336909
3E17FAA8
3DEAD2D3
3CC17DE0
3E1678F8
3E2012ED
3E0F3A86
3E7AE7C7
3E4C5261
3DBCD236
3E563085
3E90D707
3E65572F
3D87C028
3D19F964
BCEAE8CF
3D0E15F4
B9D20266
BD06FDA7
BDCED38F
BE034F5D
BE3BF5A9
BE0D555D
BD9C4DF4
BE0058F0
BDD987EA
BCB33E54
BDA7BAA5
BC3D3D4A
3D6551C6
3E275576
3E3120E8
3D8A2544
3E2D8AFA
BBBB7E5E
3D7F3770
3DAB50D3
BD67E1E4
3D583FDC
3E357627
3DEC06BC
3D01DE3D
3D2F5363
3CC82B06
BC5FF5F2
3CE06B18
BDD3BF51
BD3B89A7
BDAC0DC5
BE13CD27
BE047934
BDB5D746
3B8FA952
BD346162
BD6F315C
BD1788AB
BDBBC441
BDDD645D
3D73C4C9
BE18B265
BE81D13C
BE9E1ED4
BEAA4C0E
BE8D33A2
BE21F347
BE69AE9A
BE13AF8F
BD69C775
3DA4BF7A
3BA6A21C
3D142C11
BD3D1874
BC9AACDC
BD4BA596
BD2F551D
BD974AD0
BDE0A15B
BDD61CC6
BDDF361A
BDA1FD4F
BD82AC35
BD3A44DD
BDC5B6BE
3C2D7DF6
BDA6BEF1
BDE2A9ED
BE1D6838
BEA3A498
BF129B2E
BF2697C5
BF13B30B
BF197EEE
BEF6DEDD
BEE1C89C
BE818C6E
BE2A5781
BD2CA3F3
BCAA33C6
3BDFED3E
BCAE477E
3D352077
BCE95E02
BCFCE53F
BD603CE0
BD4E6A91
BBCE5CBB
BDA9ACD9
BDA18A7B
BE1DB82E
3BC2F2B9
3D29ADE4
3E1A1DB5
3D92EDC5
BDB2FE76
BD8A0159
BE0B604D
BE9A2A70
BED3B62F
BEFB34A2
BF01682A
BECD8ED9
BEB27ED9
BE654E6A
BE3156EE
BCB131E3
BDA9AF84
3C1A6169
3CC7D532
3CA36E46
3C8EE893
BD2D88B3
BD7003C9
3D2952DB
BD356088
3D0F50B9
BD04C472
BD10F39A
BC8D796D
BD045A0C
3DCFDBC6
BB8AE24A
3DB2607B
3E009622
3D88954E
3BC5B11C
BDBFA482
BDE30D7A
BE3C8127
BEA85488
BEA905BB
BE7E2CB3
BE3A4541
BD876DE1
BDE12882
BD4B10DD
BB8A7E39
BC7A8CCC
BD369539
BBFBA4B7
3BDA55F1
3D3DE662
BD08952F
3C3217B1
3BF1D817
3C9BE934
BD09A92F
BD87141E
BC9FB0B7
BDDB65AC
3D856632
3D6979F2
3DF54B7A
3CD131E8
3DBF7656
3D2A7EF3
BD8F9A94
BE28242E
BE6A8558
BE6C0152
BE242F8C
BE062B03
BBEB2276
BD222849
BCCE3263
3C24F949
BCBDA653
3D0E6B55
3C6BC70F
BCBEA584
BDC8E964
BC8853E2
3D87654D
3DAAA40C
3BCDB2F8
BDA59E6D
3D2A5F10
BB95874D
3D754499
BB640E47
3CF58D43
3CD895D5
3D6FDFA8
3C20C8D0
BD6BE3A7
BDA9F4F9
BE4A1460
BDF66D2B
BE2C6C59
BE187245
BD83F991
3C855AE6
3CF37732
3C7981A1
BD3FDAD8
BD4285A3
BDE8BFDE
BC816901
BDCBEC2D
BDC35B70
BCDAE985
BCDCACDF
BD8BF43A
BD26589B
3C9A6D50
3D805FE1
3DA23685
3DB35A7E
3BC891EA
3DB73667
3DA04EB0
3C8A9081
3CD70045
BD892A1B
BE5278C0
BE2B8974
BE1C9D41
BDDE4611
BDFA5057
3B0742A9
3D3CC2DE
BC93247A
BCC7EF0A
3BCA7CF8
BD33B845
BD474F78
3C7C409D
3D22873F
BD32E8BC
BD808351
B9F1568B
BD84FF2F
BD9BD1FA
3BB33A70
3E1E8992
3DCEA36F
3B9115DC
3D7619B6
3E29CA6D
3C6FFB66
BCF78E11
BDB98D82
BE3EFE8A
BE0B7D24
BDA5B583
BDC7C718
BCA42495
BCF61242
3BE5E2B8
3D072CCB
BA2AC267
BC29B73C
BBE1FC02
BDA21394
3CB64E40
3DA4A5AD
BBAAEA94
BD68EBB5
BE1ABF72
BD4E74C1
3DAB1F5E
3DC96B19
3E0087C6
3D947DF0
3D92D16B
3C8D4D19
BC76B25F
3C509869
BD3918F2
BDDD5C69
BE70D4F6
BE4AD08D
BDB2271D
BC2C79EF
3D245B21
BCC8FE06
BCE1D725
3AAC4726
BCA97B31
BD493BB5
BCB98DC1
BDE241C5
3C8E5775
BD3EF559
BCC02D1E
BD46F063
BE0328C6
3C363868
3D3278E8
BCA98D85
3D67E6D2
BC91CBD3
BCBA898C
3D3254B5
3D99C461
3DA90B05
3D428D39
BE0187D4
BE7D08CA
BD965308
BDC4D0C8
BD27F836
3D1006E5
BC86331F
BCC20670
3CE5B222
3C8809AB
BD89B632
BE2B647B
BDB146FE
BD813E25
BE430C4A
BCCCF006
BBE85FEF
BA9BDF53
BCAE59E0
BD8A4D5E
BD7B1DFD
3C54CACA
3D8056C1
3D2E723E
3DBA899F
3DEA0393
3D8E4EEE
BD60565E
BDC3A04D
BE03BB57
BD8DABA8
BD87D4F3
BCDEA30D
3D393309
BB900754
BCF3FAB7
3D0B4080
3C1078C3
BCAFED7C
BD575736
BDDDC039
BE39FB3C
BE307ADD
BD1EC823
3D794B80
BD83D075
3B797F94
3B3E06CD
BD97B00C
3BF0562C
3D0AD2B4
3C160ED3
3DD14A96
3E04E700
3D01BF71
BD264A25
3B5D0C87
BD6E4FC7
BD570E48
3CACCA58
BD00101B
BA991A02
3C4B5271
3D10F2B0
3C01C769
BD38D0B6
BD78892F
BDB032A7
BD5530D6
BE235A19
BE424AFB
BDDBBD4F
BD198F01
BCC1DF6C
BDD397D5
BC56F725
BBB52724
3DAC9BA6
3D83D0CD
3D953889
3E29F696
3DDFE7A6
3DA60E73
BD2499C5
BD8C45E6
BB9AA7D3
3BCFA1E4
3C66BBFC
BC2488B3
BC4618CC
3B61FD56
BB6FFBA7
3D21D1AA
3C833E13
BD0B61DD
3BDBE269
BD3163AE
BDBF0210
BE19EAD8
BDC4BE28
BDC56335
BD18816D
BD82BA47
3BD32242
BDA56E49
BB25D201
3D3F4D01
3DEBF3D0
3D876599
3D9757FA
3D8D3AAD
3C5F4475
3C3308C8
BD023C4C
3CBF5494
3C733D38
3D05137C
3C709753
3A56FF4D
BCA585AF
BD35E3BF
3D29CF6A
3CFAC4A3
BD014E3A
3C2A1E24
BD06CFCD
BD8B91AF
BDC6E8C3
BCCAF1D2
BD450888
BE061F07
BDA17DC8
BD572644
BD65EAB7
3D4EAFDD
3D6F3D88
3C3AF8F9
3DC31035
BBE2C805
3C9D054F
3C9765C1
3CF9FC04
3C9E95A6
BC1973DA
3CF22304
3CE76B29
3D43A5DA
3D0250F6
BCB00A14
3B67A541
BD155B5C
3C202A08
BD4F3260
BD9F2A70
BDD8C2A8
BDACE9E4
BBD1BA08
BDED70DD
BDBE3EB4
BDD8DCCF
BC075C19
BD6A006F
3B285496
BDD1B543
3B37FD4E
3C9EBB83
BBC79322
3D31C065
3D19999A
3C15A2D4
3BEACEAD
BC2CF8C2
BBBA3E12
3CDF41B8
3B4EFE55
3CEBDF57
3B329D80
BB93AA46
BB262024
BD304115
3D11992A
3D236E3D
BCA7B22A
BD984690
BD3BACEF
BC43D267
BD810151
BD2CDA43
BDC81100
BDF0E1BF
BD43037E
BD018D59
BC82EC68
BDA0BB3A
BC663D55
BBFB367D
BD05AF8A
BCB631F4
3CA34146
3D0D24C0
3D2D740A
3CB0E242
BC47A844
BCB99CAB
3C7B5905
BD44FA98
3CF02177
BD18DA35
3B9E13BE
3D3DCAE8
BB50A61A
BCC818BB
3CDB0510
3BFE37C5
3D1EAF16
BB076F38
3C5CC4FF
BA5A0C01
3BAF070F
3C0DDCD9
BCDCC8D7
39CF1A84
BD006BCF
BBFDD3E0
3D34B4DB
BD31D61F
3CA6BE79
3D0CBE15
3D04815C
BD00B4CD
BD3F49B6
BC0065E2
BC2296CC
3D106A31
3D2518DD
3C87B08C
BD0D33C0
3C147640
BCC6BD9A
3D3D1574
3CF47672
BC63202C
3D15E778
BC1241D2
BCBE5171
3D44AF70
3B7C066C
3D108769
3D320C6C
BD18ECCE
BCBD16A0
3D3FB4B5
BCB10308
BD3794D1
3D2DA0A7
3D0F3072
3D3F3CC7
3CA76E18
BCA304F7
BC8431D6
3C3B8464
3CEE7516
3CEB8E8D
BCD7EA9C
3C6CA455
3CC55F34
3CC74083
BCFE40A0
BD1BD25A
BCE53F7C
BD11BE0D
BD26B11C
BD0D706E
3A10590D
BCBA9C2B
3D01120E
3B563B87
BC97764B
BD269AFE
BD1DA93B
3C702B7D
BC8EF48C
BD3D1D0E
BD1F8DF3
3CFAE03D
BC3068D3
BC832DC8
3CD0C502
BD03F546
BA3B51F9
3C177874
3C3BE145
BD2E1A4A
3CC6627E
BD3F4FEA
3CAD6419
BC353DCD
BD633C8F
3C8929D6
BC94ADE2
BD4E2509
3A29825B
BCF872E0
3D035A0D
3CA3193D
3D2266AB
BCB6B89F
BD4D14C5
3CA9EABD
BD5A1AD9
BC96029C
3C22790B
BCECEF96
3C46F699
3D02CB75
3CBB4C94
BC5FFEEC
BCB733EB
3BBD13CF
3C87AADA
3D058F7E
3BEC3104
BC4B4EF5
3B18136C
3C668DE4
BC9ED4FC
3D266C38
3D950377
3D2AA293
BB1637D6
3E0BE665
3C4F1097
3DA5BC26
3E13EE80
3D6E7EE8
3D9B0C24
BD02CF31
3CD96936
BD46BE70
BC91D625
BC468B91
3D1847F6
BB9DDE51
BD21DE70
BD3C5C69
BD12B36E
BCEF6C31
BCB26B00
BC7DD717
3D35273B
3D1F2E0A
3B383474
BDD22D0A
BD85FA3F
3C3DE6AD
3D0C89FB
3E13F52A
3E31CCAD
3E657798
3D39D3E6
BD96E104
3D8A0B11
3D6AFF91
3C99247F
3D063719
3CB94680
BC87E7B2
3D9DC316
3CCE80D2
BD1E85BE
3AD79A1D
BD151894
BCAC40CB
BD1C1F17
3BBDBE8B
BADA5C58
BC9AF6E4
3CF6E633
BB972346
BE098A89
BD9ECB38
BD43B73D
BD71233E
BD956B46
3D3A2DF9
3CEA9B80
3D38F5A6
BD710175
BAD5F604
BC92C482
3B37B3F0
3D41646B
BB35E2AF
BD26998E
3C6AAAEF
3D057E12
3CA730AF
BCEA0245
3C70AA42
BCA8D0E7
3D0DB875
3D3CCBE1
BC909584
3D119B07
BD40077A
BE07BB69
BE3CFB1E
BE0350C6
BDD3EA46
BDCA0974
BDC4A43E
BDB93B44
BE17B291
BDFA0D1C
BDA5B331
BD9B9FF1
3BC8D1AF
3D88EB66
3D522140
3D220005
BE1C85BB
BE1F2469
3C856BC3
3E09FABE
3D771406
BAA81687
BB91FE2C
3CDBE857
3B72B2C1
BCF8A011
3C0EE776
BD053DA4
BD110A34
BE0CB72E
BE81FDBB
BE565CD0
BE2385D2
BDD49107
BDA5A6DD
BC8A8D10
BE19ABC3
3CB3781E
3C568512
BCD339A1
BB1258AF
BD9E1D9C
BD241B47
BC65A0AB
BE3A6999
BD445C22
3D89DDCB
3D33E1FD
3DCD372C
3D0857C1
BB4DE7B9
BC99D4B8
3CD2450A
BCACF915
BC99B7DF
3C430AE8
BCEDE88C
BE53F179
BE5587D7
BE879CC6
BE16D21C
BE2C7097
BD7516A1
3CE0830C
BC9B1323
3CDB9D81
3CF011E9
BD8DEE48
BDF3F91E
BCFC380D
3C004832
3DA0A9F4
3D2A222B
3D65B587
3DBF4EFF
3E3E7E3C
3E227D69
3D9D8BEF
BD1FC48E
BD1AA01E
3CEEFE6C
3CF1B0CE
3CBFAA0B
3C0DF8AA
BDF70416
BD856F66
BE261A65
BE2DCA1D
BD85C451
BD3CB191
BD825FFD
BD0E72E2
BD08EF50
BC579212
BD12328A
BDB7BF28
BC9194ED
BDAE3697
BD3A6436
BD3E28BB
3D1C6D29
3E014584
3E2756A4
3E7B80E6
3E4E130C
3DD7A32D
3CF8365E
3D132C85
3C2EB2CD
3C96242B
BC9229F0
BD1A7936
BDAEACF3
BE492FE1
BE470EF9
BE2C2C66
BD47EFDE
BD9DBEB3
BD0DDC1B
BD6592C0
3D9F066A
3E029544
3DAE1046
3E1D614D
3D449D46
BC28A088
3D8C69AB
3E0F41F1
3D2F44E2
3D92BD1F
3E2D7241
3E82BF7C
3E540BA5
3D3C7E43
3D43B025
3C90FBD7
3C81A0FF
BCE70561
3D6E87C6
BCAE3379
BDEA34CD
BE7A147C
BE69A074
BE21583B
BDAB47F9
BE29A10A
BD484B46
BD347025
3E0F2350
3E4FBC7B
3E0495ED
3E379F9E
3E89E12A
3E77FAA4
3DC60ADF
3D61C908
3B8B39EE
BD899FD5
3D1254E6
3DC6EDFF
3E11B9EA
3C020945
3CA8C8D6
3CF39F12
3CBA6F11
BCE7822D
3D0E7BEE
BBC4DF17
BD84EF9F
BE4A8229
BE587A44
BE42F9AA
BDEBBCD4
BE016747
BE35CB45
BE27116A
BC0D4A19
3E950C61
3E4DCCD6
3DA77AB1
3E33848D
3E60C25F
BCCBC9D1
BDEA9122
BE82C58D
BE7317EA
BE517046
BE192900
3C128259
BC034583
BACC7D14
3CD2D4CC
BC756BF6
BD004B9A
3D0DF206
3CA3984A
BD9104FE
BE37E7E1
BE02649C
BD96FF56
BE0033A4
BE4C71F7
BE4F9C98
BE22F109
3D855624
3E0CFE88
3D1F695A
3E072B72
3E0E2D91
BCE3E4F3
BBDFB3C7
BD4AE762
BE4EFDB7
BE9F352C
BE691424
BE2560C7
BCBCE23F
BD750FE2
BD1C61AE
BC1750B0
BD0405DC
BCADF491
BBE69A05
BCA838B6
BDB9C716
BE4BB4F6
BE5803C2
BE2D4167
BE0D2BE8
BEA6DEA5
BE570475
BC9B4646
3BDF59A0
3D14A4B1
3CDF89BB
BD9E4A18
BC17174B
BD91D4BB
BBF9ADB2
BD13FD73
BDABA890
BE3CAC72
BE411FBC
BDAF51F7
BD8742BD
BC3FC9AC
BC45429F
BCF9FCE6
3C8BB554
BD0474E0
BCE4A7C2
3CFCE2DD
BCA176AB
BD78F918
BD827348
BE253883
BE8B7902
BEA85240
BE7D4EE5
BC3CBEAA
BDC1BF8F
BDFD355E
BDD98A59
BDD6C220
BE21AAE1
3C865D9F
3CBC6522
3DC79F56
BD8FA499
BE214777
BDFB8516
BD6F49BD
BC4BA726
BCE94BB4
BC349252
3A0B5FEF
3D25CAF6
3D5D4C1B
BAF8F9BF
3DC9472E
3DB413D9
BCA15A8C
BD28F31C
BE3E2C02
BE8E3481
BEB6AC1F
BEBA7064
BE5BD201
BE0DB2C0
BDD56833
BDDEDA08
BDF65994
BE1CE068
3DAF6E99
3DB07557
3D4E7B3E
BD9F7278
BE12D076
BE5FCE1E
BDE636AD
BD93FAD2
BD858B36
BD517081
3BEBD760
3BFBAB1D
3D0C701D
3CA8DD53
3CD45A40
3D089A84
3DCEF187
3DF86B20
BE1101B5
BE66F840
BEA5A0E8
BE8ABF3B
BE612773
BE13F12F
3A6A1295
3CD802BA
3C9D3886
3E0B6833
3DA0FD8C
3DB7F2B5
BDA6CCAE
BE344224
BE4C4462
BE14896F
BDED3FD5
BDE02E0F
3C056838
BCC3F9D5
BC8BA348
3D3C7621
3D28684F
3C9B4F3C
3D6265D8
3D6865FD
3DF4CAE7
3DC04CD8
3DA3F372
3B276EAD
3D0CC186
BD4BCABB
BD88CFDF
3CC66DDC
3E424240
3E53E4AF
3DB57E5C
3E20A6D8
3DF20FDA
3CA13C4F
BD6BEB58
BE5950A0
BE5F1C67
BE574D49
BDC59409
BCF3C744
BC711746
3C0563CD
3D42C338
3D4750B9
3D36CDCB
BC117B8D
BA196F79
3B554F83
3CDDB4ED
3DDC1C89
3E35ADB6
3E214751
3D62079B
3D4054E5
3D3742CC
3E00C0E9
3E191C6C
3DFF8CC6
3E5D51C5
3E005323
3DBF8EAB
BC5494C4
BE5863CE
BE7EA12B
BE7F7156
BE48B99C
BDA67C59
BC752AD9
BD582FDA
3D067390
BC621027
BC7C4411
3C295B66
3B35F000
BD53ECF0
BBDEB8D7
3D9E541A
BD4F62F0
3D0429CA
3CC313E3
BCA37EE3
3C2B0F19
3D8ECCA9
3DE2F492
3E04B2D9
3D71266F
3E11B8BD
3E42126C
3CB9E9F2
BDE261F1
BE7C1BF4
BE88D8E0
BE61C058
BE2D5727
BE0125B2
BBB9CBFD
BC3E379C
BC6BFB96
3D11E24E
BBDF216C
BC615B08
3A694775
BDBBFC53
BD8E545B
BD296FF3
BCF6C927
BCD1688F
BE451A55
BC9815AB
BB8FD8FA
3D9EFB4C
3D541EAE
3E058174
3DF32719
3D4E5F99
BB91A1D9
BE097DAD
BEAE0445
BE941D81
BE97935D
BE4C57A7
BE4AD192
BD25BFE2
3C0EBFAB
BCD6C98C
BD425C37
3C9E44A8
3B92DC9F
3C405950
BD44C4C0
3CA4C403
BC75C328
BD27A858
BDED1246
BE172668
BE1D0BA3
BE51D994
BD92F9A3
3C919B7C
3D434627
3DF876E2
3DBC8A39
BDC13BDF
BE0F2CD3
BEAC298A
BEAF81A3
BEA412D0
BE5A38C6
BE1A94C1
BDF5FE35
BD7F1C84
3CE3BEEC
BA895A08
3C18B2C3
BC342990
BD44317F
BD285155
3C4A03CB
3DAC8DCC
3DAA54FB
BD4FE8DE
BD41C69F
BDF87397
BDC502F6
3C1A7DF9
BBB2974C
BD2EC721
3C14FE1B
BDF0838E
BD8C2A9C
BE968145
BE8A1586
BEA69418
BE78D626
BE65E8C7
BE444B49
BDD76E1E
BB72E161
3C4CC8F5
BD1591C5
BD1AFFA3
3C407BCD
3AD6422D
BB66AD19
3CDAE4D2
B99D45E2
3C151882
3CFDDEB7
3D088E85
3D7B6BAA
3D568846
3C41F00D
3D53B322
3CAEF7E8
3C9D48DD
3CF48244
BE15D9B0
BE416242
BE18939C
BE3607C8
BE345A53
BDF50350
BE056008
BDAEF726
BDCC99DB
BD82DBB9
BD019CF2
3BDACEBE
3ACCADB1
3CCD5627
3BA914FE
BC8D06C2
3D15996B
BC914AC8
BD2B1445
BC630E76
3CF294E9
3D53B13A
3E1E9814
3E416C40
3E2AFF05
3E0304FF
3E0E8939
3D94CC47
BD26AFF2
BD75746D
BCA3A772
3D0B6CBA
BCB46FA0
3C443CF3
BD1A7CC0
BD0635EC
3C8CA4DC
BD2429F1
3D354CC7
3C68A3B2
3B9FBB13
BD2F2C90
3C77B29A
BC6D092C
BD228260
BC8A1C59
3C1532D6
BD3A1037
3C37E3CF
3CC514DB
BC47CDF3
3CE95D38
3DA1FD02
3D850B47
3C970959
3D94E638
3D1A8DDE
3D954B59
3DCCFB43
BAE36548
3D85B6E5
BC911518
3CE5E22E
3CE53FC4
BD2B7946
BC5982C8
BD23C31E
BCAD86E4
BC08A0D2
BC2D329F
BD1F801B
BB82A666
BCBC55A8
3B23F930
3B7E0DB9
BD40CEA0
3BFD3165
BD1D4CCB
3CB4D557
BC5A5995
3B955565
BCB76B6C
3B20362F
3C31AE2E
3CF98AD9
BC89C0C2
3D2FC011
3C254009
3D4EF6F1
3CBDBD9C
BCCE5798
BCC963B2
BB747595
BB2F1574
3D3DBFFC
3C3EFAF7
3CFA682B
3CF5BC91
3C932798
BD04EFA0
3CC455CE
3C60F1FF
BB9C1ECA
3CC7D5F9
3D0896AB
BD01BA58
3D1F84B1
BC68BAC6
BD1BB196
BBA63DE9
BCCE3B42
3D07E3B8
BD2F8DF3
3D1D028B
BD263286
3B5C6AB0
BC49272C
3D2330B5
3D245B07
3B5D63EC
BD2FBF4E
3CF2303C
BC805933
3C2DFEF5
3CC0921B
BD361B5C
3D346DAD
BCD5B9AA
BCB793D8
BBA6D10D
BD014E7D
3CC93C3A
3BDE4E76
BCB1CE22
BC4A13B1
BCBBA534
3CE9A4E1
BC971A87
BD21D817
BB46A175
3C919573
B9CC0326
3B3C0425
BCE71FB0
3C77B217
3C9E6D2B
3D3C0840
3C28F813
3BA00623
3CFC2537
BC5D9ECF
BCB05D05
B950E297
3D43CAC6
3D0238FE
BCA004AC
BD25C5C8
3BCAFB3B
3CA6A1CC
BC5B3655
BC905B38
BB9DA20F
BD65B1F3
BD85450A
BCFF991E
BCFE0397
BD886C3A
BBD99759
BD437A73
3CD8A0B7
BC56368D
3D1BC653
3CC446A4
3BB688DD
BD10F46C
BD0A14D5
3D33937F
BD3CA6D8
BC9230CE
3D1867C8
BC0AE2CA
BB9EDB43
3BA4F7FD
3D20A65C
BC07A49E
BD2A6ECD
3C16905B
3C8D1890
3CCFB7DD
3D03A119
BD014A8A
BD9D71A6
BDAC3902
BCCFA234
BC463778
BD3CB9AD
BDA2B426
3D1115D8
3D340220
BD11D259
3D12E004
3D6FB35A
3BC4564A
BD12892A
BD4A9C1E
BD027F36
BD52D906
BD293F23
BD1C677C
BC74FB80
BC2DE6D7
BC981487
BA9BB165
3D487562
3D2D6695
3D457D71
3D74B826
3D95B4EB
3DEAF3D2
3CBD3EE6
BCD8BA9D
BDB1A192
BDFCDB8A
BD91D85A
BDE43B1A
3C29F507
BCDBFCD6
BDE07670
3AEFBBD3
3D856ABB
3D83E665
3C063BA8
3D6F917A
BCECFEE3
3CBC79B5
BC09489F
BD34B711
BC4D9DAD
3D1CF834
BD3A1F6D
BCDCE078
BAFC99F7
3D028BF7
3DC708B2
3E0A9543
3E071F49
3CE1B61F
3C935DFB
BDB95B7D
BDBBE6A5
BE0D4B4E
3C085F1F
3D41C30F
3D87DBD5
3D906905
BDD7C11F
3D97EF71
3D30B0E3
BD18208B
BBF47A6F
3D8A5B46
3CD4BB9A
3BED41B8
BD03CEF4
3C6A8AED
3D419BE3
3D3D9412
3CF8D930
BCEB3D62
3D460988
3DB35DC8
3DBB33F5
3DBB3D45
3BAFAEA5
3CDACA06
3D8597AC
BD053AF6
3D41D677
3C369CD1
3CFE8E6E
3D9BAAD1
3D3AADCC
3DEDB70B
3DFDA0EE
3E2215C4
BCD0F7D9
3BCE5EAE
BDCDDD53
BD26D046
BC380061
3DA06C5E
3CD756CD
3C0C169F
BC27428D
BCD90B1C
3D3F05A9
BD3A0B98
BBCCE2F7
3C9AB179
3D12A43A
3D3ECB6E
BDB127DF
BD6AB5C3
BCA0589B
BC4ECD9F
BD366DFF
BCAC0B05
39DC39D3
3E2085BB
BD166BF8
3D1BC0B3
3E18FC47
3B653B5B
3C7AE21A
3CD8F1B4
BDE2F3DB
BDC3FA2B
BD9316C4
BC6F6986
BCF59353
3D2D583D
BD0C74D6
3D28A765
BC310AE6
BC73E72D
3C439A9D
3CE83ECD
BD8DBD99
BDAAC673
BE186AB5
BDD3B7B1
BD1DBFDC
BD1317F2
BCB69692
BD6326DF
BD7A9FFC
BD6934B0
3D7E97C4
BD7F9E1A
BD8512D5
BDD135CC
BDCB2843
BDEB256F
BDC121AA
BD8DAB51
BE37E80C
BD0F1B98
3D8C5C48
3CFA7164
3C7B9307
BD07845B
BB83489F
BD04B37A
BC851AE1
3CF7C125
BD744F7C
BD8E57AD
BD35AC67
3C1F1403
BD8139BB
BD0E0A71
3CF91B70
3C30E1B8
BCF23E36
3DA1143F
3E1878D0
BDA32A30
BDAD06A6
BE0B693D
BE69DDEF
BE1C6BFF
BDED7BD5
BE0684C5
BDFE69EC
BCC814CD
3D9E8971
BCC6E151
3D185370
3D195749
BD20BE06
3CF745AB
3D3F0E30
3D106199
BD186353
BD2FB4F8
BC4FD19C
BC901DB1
BD0008EA
BD50CEA8
BD9A94FF
3BDC94A5
3DA58932
3D470CB3
3DBA7A9F
3D80E7EF
3C3BC5F1
BDD60DB8
BD73740D
BE16AF59
BD3415E5
BDFA4680
BE270B23
BD526597
3C8A3911
BCD0D787
BCBB0E59
BCBF5B6E
3C600076
BD2D622B
3D8AC2D0
3D55B44E
BD4A4996
BDDF7CB8
BDCF9B86
BD4F9664
BDBA4F1B
BD36315D
3BD5FB27
3DBE51A7
3E4A263F
3E3EF1D7
3E4610C0
3DDD1BB2
3E418EA1
3E35E09F
3C801CA5
3C9E35DD
BDAF633E
BE43F1B4
BE1504A6
BDEAE00F
3D38C813
3CF9B394
BC9A3120
3D06F4CE
BC8052DD
BD20C286
3CA2AABF
3C244FD7
BCFFF80B
BDB029CE
BBD8FE19
3DA47F09
3D8699E8
3DE62D1A
3D932973
3E814836
3E0FD4ED
3E8508EE
3D0AC234
3D81D9A5
3D5ECD61
3E414CC9
3D338E43
3D878782
BE119E34
BE3DCE52
BE093E4C
BDADD9EA
BD60E8CD
3CCF044C
3C65C751
3CBEAD0B
3CB840FB
3D38FB02
3D087286
3D1A214D
3CA7C1DF
BD89C9C0
BC9125BA
3BA9B4F2
3DBFC9CC
3DCDE081
3D6CC251
3E3839EC
3E38BF83
3DFA3D8F
3D1BBA75
3D9170E3
3CA5E00F
3CACB46C
3E021274
3DB21276
3C58CC48
BDDECA28
BE13A8F6
BDC0D595
BD51178E
3D0053EA
3C8E4B7C
3BFFFCB6
3C557EA2
BD3690D7
BCAB46D5
3CD9131A
BD96A28A
BE7229EC
BE8648FF
BE35A4F4
BD1C3CE8
BDE38A9B
3D0899F6
3E8764CE
3CC9B8F2
3DC7DCA2
3DBCFBE3
3D1991CE
3CA10060
BC95C637
BA054344
3CA633A7
3D4ABD2D
3D9804CA
3BB5B614
BC6D29B5
BCAA6231
BCD2D12D
BD40546C
BD06BCD2
3CF57DD6
3CCA170C
3BD6660F
3CE573D4
BE0FF7E6
BE9A44F7
BEE9D9A2
BEED1C89
BEAFC6B2
BE54EC67
3C04FAB3
3E0C7504
3CB0AA7C
BDAD026C
3D6CE7D4
3DCF14C8
3D6954B4
BD1FCDB0
BD0DE5A4
3D62F636
3E21D8FD
3DE95195
3DB90465
BD36BAA9
BD168809
BD560A91
BCF9CAA9
39B2F909
3D1DF762
BC09B175
3C571376
3D092AD0
BE059A6A
BE863714
BECC805A
BF27BE7B
BF424DF4
BF3044B5
BECDF00F
BECC4E27
BE6921E5
BE514188
BE18787F
BE0F75DC
BE53D599
3B201797
BC4E89F2
3C800A9C
3E0A58CE
3DEF083C
3D1605E5
BD6CD95E
BDFE10F6
BBCB9CD7
3CEBF5FF
BD25F1F4
BD2F54D6
3D1E0BF1
3CFBB22F
BBDCC2E2
3BBA00A0
BE0772D2
BE814D2D
BEF36B75
BF25F58D
BF3B3874
BF436FA1
BF2DF52F
BEC76B46
BE8C3967
BE4DAB98
BE10AC71
BE4C8076
BE19BF56
3B21FA63
BD046C1F
3DD72A46
3C76AD73
3D720C2E
BD878828
BD4BD42D
BD0DDBEC
3D02103A
3CA09801
BBA1573F
3CF2F161
3D8D15E3
3D1FDC2C
3C6B63FE
BBC27D8F
BCCD4B3B
BE023068
BE4FABDC
BEBD5CD1
BED7B569
BEB0E768
BE505CF2
BD8446E1
BDC0D656
BDC7982A
BDF59104
BDAD8A1C
BCA1EC2A
BD414D4D
3E04A0D7
BD0021D1
BD4B1B43
BD8E5412
3B9AFF26
3D19DE2D
BD17C8AE
3C072649
3CBDEB37
3B324505
3DE46EA2
3DA8EEFF
3D463B95
3D290EDC
3E229C17
3DAEC323
3E0F24DF
3D8E588B
3E0B4238
3CCBA767
3DB7CBD3
3D78246E
BD2A5B90
3CBB254A
BD91F862
3D075F64
BB945463
BCF81E43
BB97A7AA
BE109418
BD518F9F
3C92913B
BAADD6DA
BCAF73AE
3D27BB85
3D0993C8
BC84D136
BD1847FD
3CFFBB28
3D6C4BEE
3D9DC227
3E0DF977
3E51E21E
3EAD4FEC
3EAF1997
3E8F2AC1
3E85021D
3D8C4E88
3D20786C
3DE8198D
BCE9011B
3D05E33F
3DBE9954
3CA70E3A
3BB5E1C5
BD0DFF5B
BDA28505
BD026D4F
BD8DD3C7
BCC305A6
BC88C74B
3A9BC20D
BCF2D7CD
BD2C37C8
BD2D5305
BD837712
BCB594D2
BCAEC500
3C002BDE
3E0DDFAC
3DF1E6B2
3E96350B
3E32174E
3EA715A1
3E23FC1D
3D9FA6F1
BC969431
3C927A6B
3CAB98A3
BDD3E369
BD37F620
3D44EB07
BD0BEF1C
BC8B4B43
BD909598
BDF9D6BC
BD612B85
BD92A385
BA962501
B96D8E70
BCBCEEF2
3C10716E
BC100941
3C6ECE49
3CE7753F
BC4BA14C
3CB17D27
BDB6CDE8
BC9572CD
3D9D64AC
3D8FD486
3D97E11E
BDAF802E
BE1F8079
BDEE32BC
BD55674B
BD51BFFF
BDA5F64E
3CC48D6E
3DEA7A15
3D37C3E1
BC587F70
BD6C1E9D
BDA1A9CB
BCCED06F
BD0AE049
BD8492A1
BC0BFE06
3C1F639D
3CD1553B
3CD63508
BD1586FD
3C18A8C2
3C0020CD
3D5823E0
3D03770B
BD21839C
BD8568CD
3C206B4E
3C0E8FF3
BC67D099
BD1D1935
3C317CFD
BD96D0D0
BD3CB5E8
BCF99706
3D8BBB95
3D87D818
3B82E6F0
BDBD6764
BE0CB4CB
BDF01BEF
BD59EF1D
BCB9223C
BCFE53E6
3CB8F15E
BCAA26FA
BD0AB26D
3C209366
3D069F0A
BBAFCE54
3D2D82D0
3DA1B58A
3E05BCA4
3DC5A383
3D1BA7E0
3B763258
3D5FF97C
BDBD2A65
BE140563
BE102BC7
BDDD1613
BE171379
BD6CE4E8
BC58030C
BDB7C8B1
BDA52A38
BDD055E8
BD53240A
BD9E6182
BC8A3210
BD31B45C
BD0CD88F
BC27C206
3BFA02E4
BD011055
BD3998F8
3D072E13
3D4435F6
3D731B31
3D4EDCE3
3D96161B
3DF606FC
3D9BEE15
3E001B69
BC05E0F2
3BA202FB
BC3F9EC2
3D00F847
BC959429
BDA2D566
BD85AA58
BCD7B6A6
BD868D36
BCB020DC
3D3A4957
3CC8FBBE
3D1EE720
BA2DAFE5
BD138D49
BD200FA8
BA96BBD6
BD3DF872
BC8934C6
BCBEE4AF
3BAA3E38
BD4519A8
3D3620E6
BCA9F80B
BC83AD19
BCA1BB1C
3CA01E41
3D998B22
3D669459
3BD49D39
3CAE6C5A
3D51E07E
3D1A6F2A
3DB1C23C
3C9DF8B9
3D6D2310
3BA82D47
3D5C0E5C
3CA6C072
BC48BAF4
3C8DB567
3D2C6B89
BB62E3EA
3D3863F2
BD3CE68D
3CD5A44B
BD21EA94
3D416E9A
3C9E3F12
3B07814D
3D214FDC
BD3FDCED
BD22CC62
BC33EDE3
BC0FA87B
3C47C930
BD0834C1
3C8E7941
BC601F30
3AA713E5
3CBFFF58
3D51C925
3CAABAA9
BC9484CE
3D09CA95
3C145D8A
BD173979
3BDB471A
BCD98733
3CA2A4C7
BD1A18AE
BC1AF9A5
3CBBB156
BD45FDA4
BCEACF23
3D29D341
3BB2BA90
BC2EC66D
BC3B55FD
BCDCD420
BC3D1001
BD172B1C
3C17EB30
BCE377A0
3CE474DC
3CE1FF7D
BC11D329
3CF0E82A
3AD4D4CE
BBA99620
BB2AE5D9
BCF442B3
BCF33BF9
BD3DC657
BC7286BD
3CD4E4AE
BD4451AB
3D2E0114
BD3BD554
BC02E156
BC2E5DE3
3D42887C
3CF54548
BB562307
BCDF2101
BCFAF4F5
BD36D48E
BCAE90CB
BC525C7C
BC3E88F7
3D13867C
BD3AD0C6
BB5C82A3
BB1A6D77
BC74FAD9
3D38AA59
3CD479A9
BCDAEFFD
BD155BB9
BD32C33F
3CA32A2A
BD412274
3D00C38B
BBDFB5BB
BCF4FE45
BD10696E
3BCA7496
3C12A477
3D2CD1BE
BC94B3F3
3BBC2A67
3BC753DD
3D2C3586
3C208699
3C80A70B
BD21A4A4
3CF34FFC
3CDC9AF1
3CB80F04
3D187D4F
3C4FCBBF
BCF105E3
BD0485A1
3D20F218
BD01C064
BC98F754
BC3FA354
3D14C165
3D81442A
3D3CB713
3CB0D934
3CEC82AE
BD2BCC50
3C8CAA47
BD43A82E
3CA43712
3D1F2201
3CD612F7
3CE15563
3D12AAA5
3D03ABE9
3CE7DA7A
BD05214D
BB9B31F2
3D22E8C9
3D3419F3
3D1BDBA3
3AB27FF7
3CEA5AFA
BC92B9F4
3CB6A882
3DB24FE7
3DBD466A
3DA2E6B7
3D214272
3D0E2E98
3DAAD5BF
3C4ECF97
3C997747
BBD3F56F
3D003639
BD1FD1F9
3D0A255A
BC1CE33D
3A930BCA
BCF6825F
BD154704
3D3EF92A
BD1A81B3
3CCA4033
BA0DEB80
3D51838D
3CF1760E
3CF992A2
3CBCCA70
3CAA5660
3DB0A8D3
3D99550B
3D90DC86
3CDF4CEF
3C9C258F
3DA1DF83
3C362EB0
BC379032
3DA3DE58
3DDDB920
3D29C53E
3CC93663
3D85ACDA
BD13C94E
3D864ECA
BD0224F2
BCC964D9
3CE8A0F3
3D1259FC
3D1567D4
3CCEED7D
BA643578
3C31D133
3D34716B
3DA2CB76
BAE63613
BB9E1C8F
3DBA6A27
3CCB9991
BBCD76ED
BCA1E357
3D9785C5
3D230D35
3DBA2EF9
3C53C825
3D27D264
3D93EA6A
3CFC78F2
BA94049F
3AD3A45A
3D2B7CEA
3D3374FE
3C2B97E6
BD2D06A5
BD372201
3CFF1D55
3C2CA81E
BCC86755
3CBD6908
3D273D8D
3C5FA757
3D6E0914
3D9F6C82
3D3E241D
3D6FF7A3
3CF10112
BD035376
BCD881BE
BD994521
BD730418
BD27C705
BDE2DA38
BD9D2AF9
BD446F30
BD6FD066
BDBFBA35
BDD2E930
BD8D7B7C
BC5A9A65
BC652B73
3DD703FC
3B0B23CE
3D3F5B33
BCF991FE
BD28ADB7
BD0AC5D5
BD328E3E
BB578506
BAC6AD0F
3BD3AA26
BC5FC80C
BD9D55B3
BDDCB76C
BD23AF23
BD9154E2
BE03D3FE
BE49E3B8
BE85A7F7
BE53E212
BE9247B9
BE6F8629
BE7D929A
BE7BBE8A
BE86E46D
BE496272
BE3B6DA1
BD279BD4
3CDCB4AF
3D40A98F
3D2F601C
3D5E9749
BCD739DA
BC567611
3D1ED51D
3C6F7BCA
3D39571A
BAFE842D
BD4D4406
BD88A887
BDEBB0D7
BE0F454A
BE459AF1
BE61CDD5
BE658B43
BE8BA269
BE9DD996
BEB0663C
BEB965C8
BE9FE377
BE915C0E
BE1D2B93
BE2F2DBA
BDBA01A7
BDC0D7F5
3AA63D51
3DABDE79
3E0B97EF
3DEFE69A
3D74C8E9
3CC32C9A
BCA976FB
3C89B1D7
BC9C00CF
3D2DB1FC
BD0A113B
BCE41ACD
BD9C4E19
BDD9A16C
BDFCDEB6
BE1118A1
BE56EC48
BE17BDAC
BDA4964B
BD85F1D9
BDABE237
BE046D97
BDAE56C9
BD8703E2
BDAF8236
BD5DA6FF
BD472A98
BD05D213
3D3685CD
3D278DE9
3E6EBC69
3E30A8F0
3CF1AFBD
3C4B1EF4
3CC9EC13
37A34AEA
BCA7CC7F
BC2B6A96
3B9C1790
3C0E660B
BD99F3E6
BDEBB51C
BD6B3103
BCA8ECA3
BBEAB829
3D9D0369
3D8F256C
3DF8E95B
3DAC19F3
3D5FB8A8
3D4D554B
3D965A95
3C705080
BC66255B
3CA5A68A
B91BAAF1
BD595389
3DB0BB54
3E01B0F7
3DD139D7
BBCEF7AE
BCD0A9DC
BA68E607
BCA9ACB1
BBAA743C
3DA14C30
3DAD1E81
3CC39B88
BDAAFED1
BD143D8F
BD13FDC7
3D53FEAE
3E110E2D
3E6476DD
3E60F751
3E4E5509
3E61A4FD
3DFEAB54
3DEE6AA7
3E186977
3E057E4F
3D03504E
39C3700C
BBC26B33
BA77ED6E
3D24046C
3DDEB444
3DBD05B2
BC821C40
BD22FEF6
BC1B711B
3D3B94E8
3C1905BB
3BE45ACE
3DB266B6
3D0E206D
BBB3F231
3DAF2F0E
3DC5A17F
3E0C169D
3E2AA3FE
3DE5BEB3
3E1E4DDF
3E2B1519
3E143705
3DACD592
3DD2E3BE
3D84C932
3DC989E1
BA84A29B
BD425ADE
BD9C2080
BDE68F07
BD8FAE95
BCEB7024
3D0762EC
3B7050B7
BC88EB2B
BD30615B
BC4F6FF6
BC26EFCD
3BA0A8A3
3DB1EABD
3D8377C1
3C7D7BA8
BD0CF4CB
3C59A938
3C5750E7
BCB09AA3
BD286B5F
3AF3F2B4
3D4FE6AD
3D5F3763
3C2177BA
3CC27491
3D029AE5
3BD37697
3DB7F28E
3B59CFA5
BB9DF002
BCF3D4A8
BD88A049
BCE3D757
BC481679
BC80B47C
3CCD1374
BCF49C3C
BD098D13
3C6816FC
3D75EC44
BCC64DC3
3D556A5F
BC64308B
BDD86563
BDDADB79
BE39CAAE
BE272438
BE579038
BE39DE23
BE22EF57
BD494121
BDE10914
BD97489F
3C886F9A
3D992B71
3DB271C6
3DF8BA88
3D03D65B
BD840A45
BBFFDC17
BC5AD0DC
BC1959E4
BD042494
3D30E658
BC9A9983
3D22FAFB
BC462B42
BD365BAF
BCCAD1EB
BA327FA0
BC85BD93
BDB5BFCF
BE905C81
BEACA66C
BE978A67
BEB97389
BE8D26D6
BE7AE29B
BE7FDBAF
BE2D8AAC
BD5B7839
BC2CF936
3DDF0A70
3DB42B02
3E25C04B
3DA562A7
3CBFDB3D
3D12FE27
BD954FA5
BDA5D8A2
3C70A08E
BD39ADDD
3C2B0B49
3C8F792B
BC01E960
BBD46F1A
3CDCCA0E
3DD6923D
3C703720
BE056D78
BE8BF679
BED5C544
BEB4004A
BEBCEB61
BEA54C5F
BE8A475F
BE47ED70
BE487607
BDE5BCA6
BCF929D6
3D8230B2
3E2446BF
3DE1060C
3D96E86D
3D5ACC6E
3C986658
BD979CE3
BD7B6A5C
BD7E6E4E
BCE4CF65
BC9B37DC
3C0D5863
3CC3B1FD
3D3D2B6C
3C27461B
3D9F24F0
3E06CCE1
BC1045E3
BD541A37
BE1A12AD
BE2906DC
BE401799
BE53D5AC
BE4368D4
BD7DFF2D
BDC387E6
BD884824
3CBFAFCA
3C80CA73
3D9705A6
3DA67FCD
3BE0CFF5
BD73E30F
BD275165
BC905236
BD925937
BD680A9F
3D05EEA4
3C7B2D6D
3D25D188
3C308165
B9042E73
BC9C52EA
3DB48350
3E01B2A2
3E42B9C9
3E89D056
3E5DDF6A
3E082404
3DD7424C
3D15F9CF
3D8D4E27
3D07CE40
3D3F6A4B
BD19FA98
3BC53019
3CF3EAF5
3C45EE24
BC2B86C4
3D7B0C6A
BC9BB0B6
BD9C9CC4
BD82CE61
BD0A3A81
3BA4E6A4
BBF0176D
BB465934
3CD12032
3C6E5A5A
BC4F673D
3D18470A
3D881A56
3DBD719B
3E265B7D
3E95606E
3E949298
3E68495C
3E2B6664
3E06E543
3E2FCAA9
3D9AC92C
3D8B852A
3C67E83E
3D56DFF7
BD37F2B3
3C230E10
BBD2488B
3C1DAD69
BDDF751F
3CB01878
BC4465FB
BD52CCA1
BD30DC91
BC09895E
3D24BDAA
3CCA9614
BD4BDC01
BD2E2417
BC2CEC7A
BD5CBA95
3D4E7BB9
3C8617F8
3E16F231
3E7DA6A5
3DD09260
3E3CF95F
3D8C55E2
3D884AC6
3C998D6A
3A26119A
3C113D93
B8CD8033
BCB8AA7A
BA019EAB
BCB91597
BDE1D533
BCF8C466
BD9FD9D4
BCA640FF
BC2AA503
3CB8AC38
3D42CCBE
3D2AFA1B
3CE8D62E
BCFE08DC
BCB91551
BC74F939
BDF477A6
BDCA6DEE
BD45718C
3D7CF285
3B67A02B
3D806F29
3CB8777C
3D2F980B
3D1C35B1
3D43598B
BC91DC75
BDB25A9F
BD7D19AB
BB188910
BC5FBC56
BD47BEC4
BC35C41A
BD548954
BDD253E3
3B91E8BA
3C59D3F0
BD4ADFDE
3D3CEADB
3D0DB7ED
BCE6D8B8
BD3F580A
3CDB8262
BD8EBADD
BD74E28C
BE16CE4F
BDEDDBF4
BDE481D9
BD5C8B57
BD84950D
BE1996BA
BDBE9E00
BD8CFA34
3CB91FF5
BD1B7870
3C1F2699
3BD0EC87
BD00BA11
3D1F6165
BD8CAC38
BCB492D2
BDBBD8D3
BDAC25A7
BD835247
BBF4ECE6
3C0A864D
3C1C2062
3C934C7E
BAB6244A
3CBFF012
BC949610
BCDD028C
BD53AB9A
BDC79ABB
BDD21D91
BDF06056
BDDB5144
BDD53C51
BD433FE3
BD8CB6A4
BDBD65B6
BE16927B
BD7B21D6
BDB6B6D9
3C0D5B13
BC5DE7CA
BC6EFC36
BD82DBAB
BE08BD0E
BD75DD0B
BD3AE38C
3D14AD94
3BA0144F
3C9DD81A
3C9AF973
BD44927C
3C0DEBFC
BC9DF7A0
3D3D0965
3BB29AED
3C93262E
BC4C9EA8
3A3020D0
BD4561ED
BD76BF60
BD650ADF
BCB6DA21
BD80106C
3D11589B
BD7E697E
BAB577DD
BC1419CD
3B894DAA
3C2D03D9
BCEB4FD4
BD5CBD83
BDBE672E
BCE061D7
BD40DD5B
BC985DDA
3CE7A59D
3C6D112D
BC6A6AD8
3CEEFD53
BCAE6037
BCF74EA2
BCD967FB
BD116D6C
3C724022
3CA1E9E3
BD1B02C5
3C6E1981
BCE236AC
BCF57337
3D1693DC
3DBF4E7C
3D22CBD1
3D72F295
BB811FE6
BC33FF55
3D52AD85
BD10FA9F
3B2AD395
3C48E208
BCAE72B5
BC964155
BD537E6C
BD2B0C36
BC5D5289
BAE4ABFF
BCE98F4C
3B9E750B
3D39CA0C
3BD31F49
3C94BF5A
BC3B830F
3C870560
BD1A937A
3CF85A94
BD01E331
3AA3FF8C
3C516DB1
BD01D2A1
3C0ED1D8
3D1B7BF9
BCED3B3E
3D252F98
3D0D02BC
BBA7E757
BD47BDEA
BC1791C7
BC8139EA
BBBF7BB3
3C5EC12C
3CA32001
3C35D42D
BD353F59
BBAE1FDD
BCA95DF8
BCDACF71
BD11883A
3D45805D
3D453A0E
3C90F3DF
3C2B5B0A
3C88F036
BD3F0790
3CDD5A1D
3CD89289
3CF5D523
3CF87816
3D0EEAB8
BC040F9D
3D48482A
BA4FC977
3D2113C9
BBBE43A7
3C85BF9F
3D2A3458
BD1ABBF3
BCE78C97
3D402CFC
3B997704
3C527BA3
B9977DFA
BC14AEE2
3C3BF224
3D163473
BC71E57A
BD106A7D
BAB2157D
BC0DB7F7
3AF5FF26
3CC68269
3CF85D88
BD39BDA7
3CD45AB5
BD1C483E
BB88C2CC
3D3B0099
BC0035E7
BD392D92
3D15D1F2
BD14C031
3CC8F254
3CFED449
3CFF20A3
3CDEA293
BD318802
BC94D294
BCF9F61E
3CEF0776
BD036716
3CCE6D9B
BB5F2BBC
3D1F085C
BA64987F
BBE2449A
3D02964F
BD0C02B4
BB9AD26C
BAA65442
BCA9D8D8
BCCD710A
3D34DE04
3C313ACA
BD3E8EDA
3D01145A
BC874DFA
3D0F0989
3D4D58F9
BC77F3F2
3CF86179
BCFAF78A
3CC29093
BCDDD41D
BC916FBB
BD04BB46
BD3AA0A8
BCCFB0CB
3CAEA003
BD30B214
3CBCB274
BA391015
3D01ADBA
3CF4F5A3
BC8CE35C
BC83685B
3BCCB6BB
3D1D444B
3D2538A0
3D0F1E4B
BCDEF997
3C9429AA
3C7744CC
BD2D906C
BBD95DB0
3D0D556B
3D93B1A9
3CC1BCD7
3CE3CB4B
BD3AC84E
BD6F8926
BD8A0610
BC0BAFF5
BC310078
BD204A4F
3D06C961
BC6EE2E8
3CF68281
3C177D4F
BD2398EC
3AB26B8D
3D34C351
3CF89127
3D1D9444
BCA7E751
3D056A01
3B8EBFAA
BBF83242
3DF4810C
3D6A3920
3DD76D44
3E5547C4
3E52C89A
3E286234
3DCE8363
3E03817D
3DD60574
3DAA25C5
BABC5B57
BD57002E
BD9EC9A9
BE02A8AA
BDD005E4
3CB67334
BCFA8ABD
3D3B4AA7
3D283E6B
3BB008AC
BB7AC6E0
3CD725C9
BC4C1AFC
BCDED222
B771EBE1
3CC0870C
3D59991B
3E28DE1C
3E2A133F
3E66C3CC
3E594290
3E7C8CE8
3DE8FCD2
3DE757E3
3D79BA1E
3DA5824E
3D8B9B50
3E7DFE3D
3E1F4D28
3D734D81
BDA66809
BDBB2013
BE3B0EEC
BD8AF9A5
3C3E19F9
BCAFB4E0
BC1D7AEA
3B9B0445
BCB33FAB
3D3EF530
3D795B99
3D19BF08
3DA3E6D0
3E186D83
3E25CE76
3D90DAA4
3E03080B
3DD930B9
3CD89986
3D06E5E5
3D4E58B5
BA482F5A
3D467C7D
3CEBAC6E
BC4475F6
3D23F043
3D7A1A5D
3DEC15C1
3CB1FA2D
BCC2F973
BE32746C
BDB68BD2
BBE59E25
3BEB6F80
BC962DD8
3B82F8C5
3C8EF8E5
3D50C5DE
3DBAEDD8
3DD63938
3DB5BFB3
3E0CF37D
3E090E53
3DC414F7
3E383694
3E4E2624
3EA67EDA
3E95BB11
3E86BDA6
3D300192
BD77B255
BDF0CC1D
BE074361
BD7AE3BB
BD460CE0
3CE3588F
3D4DE5DB
BDA0FE3F
BDFCBAEA
BD64D452
BDA100EA
BC305343
3CAE00F3
3C899823
3CC88CD5
BCEFCD9E
3D274854
3E4919C8
3D7B42C5
3E1970A4
3E471346
3DD70692
3E7D833A
3E8FFEE1
3EA835DD
3EA6B780
3E53719D
3DF39CF6
BD8EE8AD
BDC6CBB6
BD987025
BD818455
BBD95944
3D9F216F
3CDF8376
BB412F1D
BE4963FA
BE0781C4
BD19F70D
BD25BB14
BAA951F3
3CBAE4AB
BD34011C
BBE48DD7
3DAF52B0
3DFEA374
3D3B115C
BD6407A2
3C0AB87C
BD1786D6
BCD71CC6
3E19C576
BD055107
BCAB2851
BD85890A
BD81E75E
BDBCFB96
BDCC3292
3DDD9748
3CF2BB19
3D9414FD
3D071946
BD3FC13F
3C12434B
BE744719
BE828A37
BD30F9AB
BD44896F
3D35397D
BD39E059
BD0486D2
BD046601
3DD4640C
3E004DF1
BD907B9D
BE57280D
BE132F58
BE98A1B9
BEC9314F
BF210F1D
BF4BB2A8
BF2C7D71
BF04F9DC
BE88325C
BD40355B
3D99FCA1
3DBFF96B
3DF4EA26
3D86011B
3CA763CB
BD8AF0D5
BD8E27F3
BE7D1C72
BE747BD0
BDABFE3D
BC37BA66
3C13506A
BCC294FC
BBD2D8FF
BCBA014E
3D54FD04
BD7EF5B1
BE813E56
BEA62479
BF0FFEE6
BF44D017
BF82351C
BF824F29
BF41FEB7
BF11265D
BEA11A33
BE4021F9
BE1A913E
3DAF0C58
3DF3AF47
3DC67D9E
3DAA9623
3D05BE04
BDE6402E
BDDA0E34
BE4CE7B5
BE01CD1D
3BBDB89F
3D243374
3BB72938
3BECA4C6
BCE4482C
3D824115
3C43C755
BD9480B0
BEB47929
BEF641AC
BF24F6B2
BF4751E6
BF36FDB5
BEBCC0B1
3C48CCC2
3D38A1EC
BC859EEF
3A2919A5
BDAADDF4
BDE59E30
3D04392D
3CEB3E09
3D2D6A83
3D16E3DF
BDFAE9C8
BE20A914
BDD8FC13
BD257963
3D78FFB9
BB6665C9
BC819F87
3C8A0111
BC180AC1
3D823C01
3D8B1F2F
BE040186
BE860A2B
BEE0F6B9
BEA60885
BE28AAC3
3DC6A836
3E9A939D
3EAF8F5B
3EB0D732
3E1DED06
3E41A2D2
BD8B8631
BB3A97CA
BDADC912
BD8685C5
BDD9E8F7
BD354F30
BE25EDC8
BE1F8CCD
BE5DF4D1
BCE88368
3C915D6E
BBD81BAF
BCA8D34D
3CA48A2B
3D476D20
3C9913C8
3CD4309B
BD9865F2
BE6C8AB0
BE203AC1
3CB88931
3E96C31F
3EC34573
3ECA8634
3E8FD1AE
3E1A2E9A
3E11D6EE
3DAAC5FD
BDC977B3
BDA09FBE
BDDFC64C
BDBE66A6
BE2AE11F
BD90EDD4
3BBC9913
BE1B9927
BDF54D65
BC2A214F
3DA51498
3CAE8100
BC44B8D4
BCD94A6B
3C445E3E
3B6ED2FC
BC69829F
3C5D2DC8
BD9CEFD1
3D90B88C
3E6AC428
3E57B17C
3E67283C
3E064E3B
BD9E483E
3C2C34FF
3CAF22E9
3E0831B7
3C7AFF0B
BCA92637
BDDF7969
BE2ADF81
BDF16BA9
BDAA61C7
3D0D0BDF
BD9A7771
BD3B3732
3C701B0B
3E0D9889
3D56AEAE
3B7EB9A6
BD2ACBB9
3C7E57AE
BD2661CC
3D9A5CF8
3D6C984F
3D30823A
3DC0C495
3DBB225D
BD4707BA
3D53C07F
BD0695AA
BD1977E1
BE2FC51D
3C71F16A
3D384C27
3CFA9835
3D064D8E
BE1AE7F7
BDD27530
3D93BE81
BC196959
3DD5A8FF
BCD1CF78
3D9884EC
3D868B0A
3DDF8060
3DA80975
3D2B66B5
39EEF397
BB422BF6
BD07E5C9
3D8EBC72
3E0A4C3D
3DAE4A50
3C823663
BC8228CC
BDCCDED0
3B937A82
BC3CF44D
BE03FD0E
BE28A1C0
BD939B2C
3D8DD6D0
BD384B29
3CAC2364
BDD737D5
3D34C33F
3D8737FB
3D79F345
3D259239
3CDB304D
3D0B507B
3D9948D7
3D7E8176
3D9E7D00
3C35D3F4
3D2DBC50
3C3B048D
3D742994
3DA182EF
3E10E97B
3CA4E817
BD2C7658
BDE0E93F
BE2BADA3
BDA61961
BE00DA6C
BE27807F
BDF469D8
3BB522A2
3D7B6DD7
3C53463D
BCD5AC18
BD0372EF
3CA39057
3DACFB1F
BCA79229
3C39BD84
3D2196D2
3C79C333
3D5A3284
3D7D58E2
3C3A42A8
3C1078FF
BC669602
BCCB1E7B
3D1E13C7
3E03B1C9
3CDC197E
BBC1D491
BE15B0F4
BE035EEA
3C634424
BD5CD302
BDFDE896
BE0B06AE
BDF5B6FD
BD1AD657
3D6F1D38
3DC946C3
3DE55901
3E0269C8
3D05A4B6
3C783E54
BD18D10F
3DD42183
3D036F23
BB25B5C1
3D2CEEEA
3DA9DCF8
3CE43D08
BB2B3CFF
BD38F5D7
BD39F946
3CEDECCD
3D7D8F62
3D0140FC
3C5FF0F8
BE00D43E
BCBDB2EA
BDA9BA5E
3CED32F1
3D066F12
BD5584CA
BD3B462E
3E4CC09A
3D93DA9E
3DE3DD94
3DE8D21D
3DDBF081
3D5C937F
3D3C594E
3D49326C
3D8F3CD2
3D851506
BBBEE0D5
3BA2005A
3CD18289
3B559743
3D0A24EB
BCA0B114
3C26A227
BC030428
3DC3F57B
3C374F34
BDA5051A
BC112C18
3CC84F70
3D068677
3C15D520
3D0538FA
3D8E10F1
3D3BEA35
3D8EC9C1
3D65EA93
3B9D328F
3C292E00
BD5FEB11
3DA442F0
3D85DF25
3DC96999
3D9770A5
BA1B7292
3C094940
3AE781BF
3D76208F
3CC0FF42
3AD3D3A8
3C8442D8
39020BAA
3D849330
3D71A299
3B5334C5
BD226E8B
3B4B5D30
BD0BDC36
BE17A847
BE2A4DD6
BC5CE7DC
BD98BE97
BC88C384
3C1835AC
3D1568C0
BD9FE5B2
BD44734E
BC90A237
3CEFAFC3
3DAC1910
BDBDF534
BD16EE1B
BD80161B
3D41C273
3D0142C5
BC446FC9
BB19475A
3B854813
BD121EA6
3D19A0F0
3CEC1702
3DA6760D
3D681C16
3D817B99
3C712AF6
3D888455
BD18C923
BCFD3E46
3ACFE1A1
BD90F855
BDD5772B
BD3E83BE
3DAB317B
3AC61042
BC09B0A3
BD38AEC1
3C913ACA
3D435ED8
BD851439
BE19B1DC
BD6D6768
BCCD7E99
3D057D83
BBE84AA0
BB6FCE1A
3C278DDE
3D1637E8
BC89F62C
BB9CAB4C
3D822276
3DD5635F
3DA9F061
3DADA3FD
3DA2D8AA
BD831F83
3BDE21F6
BD38CE47
BD20B2E1
BBE6C30F
3DC74C9A
3BA45558
3D2BF111
BD25C83B
BC163033
3C432242
BD8114B8
BDE4F05C
BDFF4178
BDAEA02D
3CA2251A
3CEDAD57
3CC1D3FB
BC27F705
BBB75DA7
BAEAEC0A
BC656B38
BC77A385
3C9A8F38
3C469675
3DE74EC8
3D7553E6
3E191D95
3DD44EC2
3DC63BAF
3DE04313
3DAC664D
3D62DEC8
3DCB2DDF
3DD15525
BC908DE7
BC948C8C
3DABA4E0
BDA77AAC
BDF440BE
BE02E079
BDDB4430
BD858A79
BD812132
BB33ACF8
3D19E4D2
3C8B4F0E
3B83D411
BC847978
BB91BEA6
BCDD5F5B
3D388D32
3CF89929
3D227255
3BC66FB9
3C88B4A7
3DF16507
3E197968
3DA4950E
3DCF82AC
3E002AF0
3E1F6026
BC2C1909
BCFADC7C
3C09D7CD
3D491D56
BCA2F315
BD7F9038
391A01F6
BDA4163D
BB394240
BC8C4F45
3D04D05D
BD114BC3
3C9349D6
3CFD7ADA
BCC918D5
3D08F175
BC83A6FC
B9920C50
3C3C2412
3CB68F03
BD3FF90F
3BA5D7A9
BBA40640
3D843230
3B11A80D
BBD7AD71
3D1FB6D7
BB3AF3C2
BCC3C8F7
3D474DD2
3D6B897C
3DB74530
BBAAC06E
3CC007AD
3C8A7F9E
BD07F533
3CE956AF
BD26F283
3D0C61B4
BD138F98
3B108E30
3CA16AA6
3CDE340F
3D362617
BD197978
BD26259C
BCE503BA
BD081002
BC4CA0F6
BC8FB551
BD1D317F
BD115866
3C260EA4
BCD68B54
BC2C9E91
3CAA2BA6
BC8D1A00
3D038E13
BD13A528
3C1C9D4F
BC049B7E
B9278868
BD353966
BD171220
BD08F10F
3B38E59C
3D2489E7
3CD27519
3CFD68B9
3C078234
BD3BBE11
3CC74468
BD2ED1F0
3C25BF2C
BC1C8BE7
3CE2AA0F
3A8DA0E8
BD0C4F41
BD2172F4
BC98081A
3D40F1E5
3C783EA0
BC8C93BD
3C321114
3BDED3E0
BCC3CFB9
3CD8CDE7
BD43B6EF
3C1E51BA
BCF78212
3B93A15D
3B9BE3B6
BD307F04
3D2C118C
3CF319F3
3C6E3075
3D201059
3CBA5FFE
BD4204A2
3CD404DA
3D0AC91C
BD3A4EE9
3D0B9EE5
3D1F2361
BCEF404A
BBCDF23C
3C74DF70
3C5127DB
BCE615D4
BBE67616
BCA735EF
BCCB9EAA
BBD9E1C9
3CF8B62A
3B8266CD
BCA7D4D0
BD1325A4
3B4FAC50
3C37A7F8
BD106E12
3D306D25
BB5B2A08
3D070B6A
3CDC16A2
3D02B23C
3CAC07AB
3D2D686B
BCEDEFAD
BC559C1F
3BAEB738
BCEADD1E
3C636A53
3B964BC7
BC913D8A
BC38E0BC
BB884635
3D12291D
3D0CBB52
3D864BC8
3B7A6638
3C9818BB
3D8AB45F
3D498C69
3D7FD093
3D41B4AE
3DA6F467
3CA9295F
BC8BF404
BCB56CF4
3D06462B
3C7777E6
BD3EF2AA
3B81D1A7
3D3B9AAB
BC654A27
BD3210C7
3C4C9280
3CCCD886
BC058EE0
BC7E3C3B
3CDBEE0D
3CCF4882
BC14FB1A
3CCDD063
BC80BAB0
3C0339F1
BD5A10E0
BC13B7EE
3C8964BE
BDA78925
BCC143A2
BD9C5677
3CE58BDB
3DB43F43
3D8644B6
3C917380
3D16D5B2
3CB82692
BD0F6657
BD38229C
BB0CEC8D
BD1D3119
BD063A0C
BC0FAC1A
3CE88DE3
3D20E3F3
3D3CF148
3C5F0696
BD194A34
BCA7F06F
BC50D647
BD247687
BD3EFCB8
BDF78119
BE144391
BD8A025E
BE2DB9B4
BE8B2CA8
BE4CF348
BE096C9A
BDB18134
BB9AD03B
BBE8F6E4
3CE80D80
3DA703B4
