3E2BD366
3CB33023
3E7EB9C6
BE90C2A5
BD164AED
3D3E8E50
3D1667CE
3C7AA085
3D38EA85
BCABC469
BDC59269
3EDB308D
BDDF56D7
BE51D4A9
3CEA93C2
3EF4C904
BE4E927E
3DAB44DC
BE8FB290
BEED18C6
BE7EF837
3D18AABC
3DF41651
3C23FCB4
BE0B3E3A
BEBC0681
BDC3A9FE
3E912B2C
BE03CA1D
3D895300
BE6E9AF4
3DD15230
3D688D93
3DBAF781
3D0407CC
3DCE1E27
3EE03719
BEB31CE9
3D3FABFA
3DEB3ED1
BE66A5F1
3E175A90
3DDBB1C3
3EB5DF82
BE8ECE49
3E9DE048
BE52A833
3E94E459
3E744DB5
3E19D5D2
3D954FA7
3D256D02
BE9CAA85
BDF95939
3D887B9F
3C71129D
3E0E8C29
3A952CF8
BE0AF4B9
3C7303F9
3B2D3583
3D8D83DE
BE81BE8C
3E1E0E11
BE8F7330
3DF10BA3
3D85F7E0
BEC194D5
3E8147CB
BE06D73F
3E4C7A9F
BD3B9BFD
BE85E0C5
BE113B77
BE060922
BD124097
BCBBDB93
BD85666F
3EA4D16E
3DC33AA5
BED3E32A
BCCDF28C
3E986F29
3E57C0D1
3E33F0A6
3CC868E0
BE75F441
3EAC7AB4
BF1941F1
3E9AB898
3E0FBC1C
BD7636A3
BD65A3E1
BD42A203
BE17054D
3E82C2A5
3DC3B5D5
BEAF2341
BD0F2994
3EF7D6C6
3EB5950B
3DC4EBAC
BED5ED40
3D26E966
3E6FE445
BEBAB59F
BEE281C3
BE131A0A
3D754D0B
BCA6EEFD
3D94EA69
BDC6F443
3E910247
3DE8C01F
BE1BBB46
3DF3CAB3
3E53AD7A
BD958B3B
BEECDF6F
BEA71325
BE7850B5
3C54C25A
3D50CEFD
BE5EF837
BE20D7D4
3C1989BF
3E7A7504
3E266FAF
