BCDB48CC
3E9D07EA
3E0E72B2
BD020673
BC7BF646
BCD57847
3E0EA745
3E8A7A62
3ED53CB0
BD859DEF
BE6D4775
3DC01C68
BD459C8D
3D97BFB2
BDD63521
3F559205
3E09E07A
BD2E4793
BE79465A
3E8DD85B
BCF80901
BEB79031
BE21D207
3E19A406
3E49AB49
BEC8EF6C
3D781098
3EA0A3F7
BED147DF
3D333E69
BE73928F
3D985BCE
3E46D6C9
BE39283F
3DF89305
BEB0BDDE
3F31367B
BEDE5889
3D865692
BE0B05A0
BE60A408
BE457533
BE6987EB
3EC4FC5F
BEC59375
3EAD0B2B
BD92783F
3E4A4A67
3E240420
BDDCD96B
3F2AE2B6
BE891DDB
BF05ED8F
BE5FC639
BE00835A
3C6FC250
BC512460
BF00222E
BECED9FD
BE74FBAB
3F12CFEF
3EA8ACE4
3E4E250B
BE0796AB
BE98E502
BE94DAB6
3E89A0CC
3E7F5003
3E2DFF72
BCA3F34F
BEA4E027
BE2739F5
BE20C2CF
3DE4D706
BC71E413
BF3E410D
3C9D00E7
BE67FEC2
3E118D31
3E423122
BD17A326
BE7E31C0
3EBA0056
3C5CB131
3D65AE02
BD394B76
BC072030
BB74E36C
BD1324F6
3EC56B50
3D88EE18
BE761F43
BEDB4F35
3E016EA0
BE9B3C6A
3EB44C0A
BD16DC0D
BBBB7B13
3E37E09A
3EAE3B36
BE61AFD2
3D6EE893
BF1B0CBC
3D9D2958
3F45A8AE
3EB81F3A
3CEEFF39
BEC870A0
3DA85D97
BEAD359F
BE8B0662
BE0A6EA4
BD4A9382
3D290BA2
BC7FC6CA
BE772275
3CE9D786
BE5CDCCC
3E0D0D37
BBC9B9C8
3DF04106
BD433C88
BCDFDE6D
BE46567F
BC0FC20A
3D71C5B3
3E1AA5FD
BCC576F2
