3E447BBB
BCDE9826
BCF0FE45
3E253D9E
BDB463E9
3E41AA06
BE843665
BE9FF7BC
BD9A2075
BE22A4F0
3E089B63
3E1C283D
3C4E940D
BD1E6B45
BE90A6CA
BE51DEA6
BC346309
3E840727
3E9247E4
BE323230
3D5A1A4B
3E9575FC
BC352856
3C89B083
BE77545C
3E4AE775
BC9ADECE
BDB0C0E4
3EDBBBDD
BDEC9EA9
3DF59F0B
BE8A719F
BEE78852
3E173326
BE96B8DF
3EB9FE77
BE9E18EC
3CCA163D
BE7A14C5
BE59FBA5
3E9D50AB
3E63E111
3DD92EE0
3D6AAF28
3E6CF797
BE1D3E7D
BD6C5754
BC396379
BB867937
BE451978
BBD05518
3EAAB121
3DA707DD
BB081A6B
BDB02E86
BD280DFC
3DEC051C
3F067794
3E395A64
3E978914
3D55A5BC
BEC482FA
BD466103
3E8C2D19
3D91CCF7
3EA17D06
3E25BE20
BE8A2E6E
BED343D0
BDC342A0
3E60D88B
3EBCDDB4
3E7180F1
BD8691ED
3E31ED22
3EB201FC
BDE47421
3E59D2EA
3E0CF45D
BEB7DD7B
BEC5509D
3E22CF41
BDD121DC
BD720208
3E97F15D
3E82DAE2
BDF00853
3E952CCA
BE4520F4
BE267210
BE431B15
3CAE40C0
3E732E94
3D462018
3E28EDF7
3D2D2565
3DB1E565
BD8E601C
BE178D92
BDA2E33C
3D13BE53
3E114D33
3E82AB6F
3E2FCFF8
BE0AE1DD
BEF851C6
BE8F52C1
BDEFA0AF
BD81A39A
3E752581
3D9B1256
3D83CBEA
3D505372
BB91176A
BE9C296C
3DD6DAAF
3E4A2015
3D16C383
BE3859F2
BD8E0264
BE9B9A54
3EE480EB
3E5716DF
3D28AC03
3DBB0438
3D077087
3EA5FA0C
3D00740E
