3D4A4518
3D6ABA8C
3CF8D20E
3E978B97
BDEB18F2
BE26395A
3D6F7693
3EA4E7F7
3E67D07C
BD871C12
BE5038A8
BD4E4C2B
3E90F706
BE12A7DA
3E2B72BE
3ED32DDC
3C55C67B
BEE5215A
BE773D69
3E95D3D2
BD975339
BD891CAC
BE947949
BE0BF6E1
3EAC0E02
BD3995F3
3DBE1216
3DE4E8E3
BEAF5BBD
3E4F63E0
BD8AB519
BDA5C775
BDC3A0A5
3E09697B
BD91C990
3E1C7A06
3E05E8BB
BDEB3883
3DF0C5B6
3E971B71
3E122863
BE2EA125
BEAA3DB5
3E1932B4
BE0552CB
3E1ECE1D
BDCF1210
3E006C2F
3E9E52F5
BE52F108
3DA20715
BEEDFFA8
BE04CC88
BDB709DB
BE1CD031
BD298BAA
BE5093BA
BED32CDD
BE07B254
BE41C1F0
3EA17250
3E2707C5
BDF89F55
BD83BD89
3E9EC6E7
BDA2EF16
3E19F961
3E467D29
BD743B03
3E9E0C80
BED77A3D
BE313AF3
BE918B4C
BE26A755
BDBDC65E
BECBBD79
BCDB56F4
BE223339
BD836E7B
3E19A25E
3DFC451B
BDD0AE6E
BD79C761
3DDF1E22
3CED15E8
BCA71A15
3DC88A3F
BDE5FAD2
3DC8C90E
3E0E1900
3CB4E12E
3D76F3F3
BDB41706
3E5AFFF1
BD435ED2
BE6358B0
3E08E7A7
BCD04523
3E60B9D1
3B5F4042
BD14A330
BD3201E0
BDD94C5A
3E5FD2BD
BDBAB9E8
3ECFB6A8
3EAEF732
BDA5121B
BD96B3D3
3D1CE91D
3E0F90CD
3D8D8941
3DB62E02
BD50FCB0
3E9840F5
BE5E7063
BEB8D32E
BE63358B
3C01C1B7
BE089B18
BD908613
BE23A62C
BEA1269F
3B47815E
BDADECFC
3EAA0BCE
BE908714
BD9376EB
