BE04E415
3F1A53B5
3DD299AE
3DA4E942
3E03CAB3
BE245057
3DD6469E
BEF25D33
3E00D4CE
3BE68357
BE47A149
3E6DDCB3
3C34AD67
3E8BC808
BC9FC7A6
3D280664
3EB85735
3EDE4CD0
3E797DB6
3E26BEED
3ED8D697
3EAB6F71
BEAC2289
3E0E8A6B
BDAA6D8A
3EF4BABC
3C9A8B31
BCE3977F
3E135828
BE0CF2A3
3E401F5C
BE66F532
BE52F08F
3E2DF6D8
BE906A64
3EF8866C
BEF10EB0
3D373688
BE91A95E
BC220F8A
3ECE3796
3E5E3B88
BEB23531
BE3957CA
3E9CBC1A
BD807276
BE947503
BE8A9746
BC730149
BEB3C27A
3E00D07C
3EACABD4
3CB93D43
3E03D319
3E02D3D5
3D992C9C
BDE3880A
3F0D7B63
BE92A824
3CD5BA97
3DA32B75
BECF0CD6
3DC0E18F
3CE71D70
3DD29EBB
3EC21A92
3D77C126
BE56C808
BF070195
BDB051C7
3CB9BDA6
3E43864E
3D947674
BDED2F29
3E6899F8
3E58A044
BE53712B
BDE77B56
3E5F148A
BDACFF94
BEC6A475
3E13460A
3DBB474C
BED3E187
3E934225
3E52136C
BD7E4BF3
BE700230
BDCD0B54
BE4A53B6
BF18DD22
BE114972
3E6100EF
BB2FBD4E
3DFBAA05
BEDB36F0
3E0B920D
BE34EAD5
BE612F8A
BE30DBE7
BD1D6A8A
BD3522CF
3CF61109
3E411E46
BEC1EF48
3C6DF9E3
3DB23E84
BF096D3F
3E352BE1
3EB47435
3E52A8A7
3E44E7B0
3E4C8809
BEC25F5A
BE104AB2
BDE0244C
3E99E850
3E99E4D5
BE692C4A
BDAB8E98
BE906AF6
3E06F050
3D0BF1D6
BE46E126
BE027D0F
3E0EB764
3E95F366
BE42ED72
