BD110114
BE4EA7F8
BE4E09D0
BEE69B02
BE850433
3E77639E
BE77CF89
BCDDD1F3
BDAEC1FE
BD89C7AA
BE6A8B00
BDF9468B
BE444D09
3E97232D
BED9DA63
BCD3D1D8
BDFD4E96
3E997045
3EE845D2
3DA78ECA
3E2BDAF4
BD2F8F5F
3E036035
3E78F4B8
BEC397C2
BCA84D41
BEC39B32
3D9800FC
3DEFF7C3
3D6F5CDC
BD8467E9
3D816D2B
3E5D6A74
BF00DC1B
3E681F7B
BF27B14C
3CEEF6C0
BCDF1673
BE17E1B4
BE555CB1
BE0F02EF
BE0ACFF7
3C9E2245
BD5A7DB2
BDC3012B
BE4E81CD
3E242673
BE169A16
BEE2AF86
3E2DAB32
3E90489C
3E8D6658
BE2F3F69
3E1C2EAB
BE9E557D
3DAC083D
3F39664B
3E230CA2
BE058EBB
3CFB229B
3D973E65
3E240D6F
3F123007
BBCB4EC8
BE82C263
BEED7E46
3E78C231
3EAFA31D
3E5EC52F
BE305401
3D4F9950
3E5A3CB9
3E92E5F6
3EB09F94
BCE2C4EC
BE285928
3D81A466
BEA83DEE
3BBEA6C4
3D91FEE8
3EA63FF6
3E6BA87E
BCCE1009
3DD50D43
BE0EF9E9
BDD478E5
BE96B0A0
BBD5763F
3E26B6A1
BE5886F5
BE031FD3
3DDC3A21
BEB0FDD6
BDFC91BD
BF161971
3F110353
BEDE718B
3EE0A642
BDC722A5
BD15C6A1
BEA4356D
BDED5904
3E2E1441
BF1CE4E3
3EBC8441
BDF4E42C
3E0D3FD9
3DE07280
3E0C70D1
BED39B08
BEF77601
BDA9AEB5
BEB38A25
BDF58615
BD460D38
3A98376F
3E2CE334
3DBAD35F
3EAB6FE7
3EC8A804
3E15E49E
3C398674
3EB85E42
3DDA6495
3EE08EB6
BE76A07A
3BF77F7E
BE8D4516
