BE22F9FC
3D358DFC
3D9D1CAC
BE053ECA
3E3588A0
3E7AEB2C
3B3F0EC9
BDCA5DFE
3CE9F0CF
3D658A66
3E5A1C03
3E3FDE8B
3E63E7ED
BEE29712
3CCE659E
BD852DFF
BE7570A8
BB41A8E5
BDCFADF3
BF33C42C
BC6A5BC9
3E9AFE39
3E789E04
BEA0AE99
BE822354
BD946113
3D7367F4
3DD162A5
3E8A2834
BD40E337
BBC5CE2B
BD76BE63
3D7479CD
3D44953B
3DB2DD6A
3E8AC253
BB53CC41
BEE50511
3E9058F0
3D9E0F4E
BBEBA453
3D8DFF4C
BC9C93FA
BB640DB1
3E2E3084
BABF9B8C
BEB6D367
3E156C19
3DBB8A0B
BE39BFC8
BDC9CA67
3EA5CCBA
BE0002C0
BE2747F8
3EBE22EC
3DA60296
3CF8087A
3DE5119C
3D62DCF2
3D9A5E55
BD7E71D3
BC454D31
BE16B77F
3E5995D1
BE3B31C7
3D6FF0AE
BE69E5CB
BEFE14D7
3D55AC19
BE85A513
3F10C460
BE5E0396
3C641A51
BCFCBC3E
BDAFEFB3
3E36876D
BE17C46C
3D0C9470
3D9631F7
3DF0F92B
BE8C26C4
3EC76611
39422E3F
3C1D8BED
3E6D4011
3D9DDE3F
BE7CCCAB
3ED396AB
BEE76CDD
BDFD7274
BD418058
BE6C3962
3E95A34C
BE565486
3E51C15D
3E3DDC1D
3C3EF000
BEF816F8
BD89A37C
3EAEF459
3F02C0EE
BDDE21CB
BE3435F5
3DA620BE
BE3FF9D4
BEFF0E2B
BEAD47C8
3E027787
3E5AF47B
3D15CC5D
3E6BC9ED
3E7AA8F9
3E3CDBEC
BD48185A
BC3151D2
3D4FAAF6
3E12A7FD
3E8C9D4F
BED51845
BEC0268A
BE96DC5F
3D0EF7B8
3D081EB8
BC98A553
3D896273
3E634F5D
3EA49C62
3DA0EF2A
