BD70C4CC
BDA758D1
3C30F5D7
BE617A4F
BEA2E313
3DDD27BA
BE2FB2CF
BE2D23B3
BD7AD566
3CC2CD95
BEF9D2A3
3EAC7A15
3DA9285D
3C436A78
BEECE86E
3E4A29BF
BE069C1A
3E666CF8
3E96DFF7
BD920833
3DF8BEAC
3E48A70A
BB933A85
3E2DD1EF
BECC3074
BC9A990E
BE92A210
3ED9AAD7
3D64CFCE
BDD95232
3DB5904B
BD3D81A3
BCDA4622
BF034E83
3E0AAF02
BDCE5343
3E7C793C
BE33A564
3E6B10B5
BE5FDEC7
3DF87191
3E108B5E
3D8C663A
3E29911F
BE6E6550
BD36D64B
BE8C444E
3DD575F2
BC946B84
BAB876D4
3E9B83D3
3E3E48AC
BEA41FD3
BD1DFAEA
BDBC58DD
3D87B7BE
3F016237
3EA0BF00
BE9B5552
3AF4C031
3E67ED31
3E58CB7B
3ED21915
3DFAC881
BE74AECE
BE54579E
3DC0BE02
BD7AF95B
3DD31FC1
BE33DEA4
3E2461EF
3E70DB5D
3E3D0DE5
3E11986D
BD4693F1
BE65D4D7
BD2159AF
BE88DC7C
3E3A46A2
BD111C7B
BE3EA819
3E427DBE
BB732F2D
3E993ACA
3E514067
3D9050F5
BE44F204
3E99058F
BEE7CF97
BCBB9786
BDBA243A
BCC5AA9F
BE3D58F7
BC7CEF4F
BF11E2C0
3F09C256
BEBD65DD
3CD8C02B
BE03B1ED
3EC06CAA
BC5CDAED
BDAB0C82
BE5C8D19
BE82A11B
3EC9057D
BED2AD7B
BE1B83D6
BE6F5F2C
B9A68FE6
BEC269E2
BE83A71D
BDD4A09D
3B42B36E
3D370723
BE1E5499
3E203DED
3E7E77FC
3D2166F0
BC76ED27
3E1A4E65
BDEDCBFD
3E352671
3EC9E4CF
BE3AB08B
3D9AE4C8
3D016901
3DEE66A8
BEAC243B
