BE0F3AF9
3D9C39DD
BC807AE5
BE9319E2
BDB15F99
3E2B4D8C
BD824F7F
BEAE1F37
BD667364
3E2234A6
BE947C12
3EA36021
3DA7A01C
BB75AF19
BE57BC42
BEF766F7
BE047655
3E9ECD7E
3E6C33A6
BEB2CEB3
3E9B4B0D
3E9D5A42
3D21DB32
3E45C773
BEDACA30
3EA13A51
BE6574BC
3E7663BD
3E936812
BE2ED2A1
3E17648D
BE2FEC78
3BA50258
BE8772AF
3C6C91EF
3E8095E6
BEB83C8F
3D0B4448
3DC80278
BC3963CF
3EB83F00
3E9B7442
BD580E5C
BCC5881F
3E68EE0C
BE338B1B
BE743875
BD9FBD5E
BDB78C24
BDFBB6B9
BE8F4CB2
3EB25976
BC771AEA
BDA77181
3E5ED97F
3E2F2C33
3EBE9653
3F0102CB
BE1AF9B5
3D0A247C
BE61BBF0
BD4CC985
3E4DC052
3DCC41C1
BE2F0790
BCAA5A67
BDF4C190
BE89AB3A
BD90B4D2
BE2384D2
3E8EDC12
3E7A250F
3E951A2A
BD02360E
BE22A603
3E675C4B
BD8702C3
BE5EC0DC
3DE0DB45
BE4F3C96
BE55463B
3ECD6171
BE013D7E
3D3465FE
3E096BC6
BC7422FD
BE98DBA1
3CE7D00E
BE2E8225
BE8072AD
BE237C6B
BDB0B152
3E6E8976
BE29307F
BE27F42D
3DDEFA35
BE843223
BE47AA2D
BE338571
3CA2AC22
3CA973A2
BCDAC74C
3E80DB33
BDCDC4CF
BE694CA7
BEC66D10
3D097320
BE06D79D
3D82D59E
3CE781CF
3D88E86F
3D59445C
3D89784B
BE485A41
BE1DADE7
3E4EF263
3EB7BD15
3EAE7B6A
BE76CB9C
3DD15D19
BE8F56F0
3E93780E
3EB0FA8A
3CB52D94
BDBAB5A9
3E0DCFEA
3E8FCD37
BEA95EF1
