3C8DEF11
BD880482
3D46264A
BDBE1B40
3D966FC0
3DF8BE01
BDBE87F7
BE32F15F
BE29DEC2
BE65CA28
3E994EFD
3D9E06A9
BE7AC5D0
3CC9C642
BCC8138A
BDA76890
3DCEAF68
3E946D53
3DA493F9
BE85C92F
BDB57003
3E446655
3E18E778
3D3ACBCB
BDB03EDE
BDFC2E3B
BC86A800
BE8B10F3
3E9B67B3
BE66B642
BE32B77D
3D2403CB
BDE2ED35
3E7E38F1
BD8CBBDF
BDB0AA0A
3D0E4AF0
3DE0DE86
BE45C23A
BE93AC14
BE1BE324
3E062815
3E76BA89
3E03C785
3E1A02A1
3C2AB4DF
3D4E6754
BD9CE898
BD6E7A56
3DC16C02
BE0F5EC3
3E74CCBD
3D7E6434
3E40F026
3D0E85A7
BCB9B924
3DF7270A
3E1412CA
3E852CCA
3E82EDAB
BE7863CC
BEC6C8BE
BDC1CAD6
3E0F699C
BE0C9252
3D867C4F
3BD3CF84
BE817294
3D87B6D9
BE8BC695
3E99B584
3EA25727
3D53274F
3DEF9FC0
3DCB9E7E
3ECE1BCA
3D39A6B8
3E5E98EC
3E0398A0
BE2B6FBB
BE2BE90C
3D6CAC20
3E0E700D
BCB09163
3DE4954D
3D75D44D
BDCC96BE
3DD3D0A3
BD7BAE52
BDBF8C8D
BD7B5ED9
BE08F39C
3DDFFE88
BE2A624A
3E00F9B0
BD29C6A6
3E26738F
3D74E40C
BE7C0475
BD742271
3D693A7F
3D24E103
3D89A896
BDC9F5E5
BBFD9989
BE8F4702
BEA37B68
3C0EEA08
3D0B10E4
3DA85EF3
BE1A3AD1
BC2A861B
3D691E09
3D96622D
BE942338
3D704F15
3E6E4D7E
3DD2FFA3
BCD4E9B2
BE024CC6
3C47FD25
3E2D91DA
3DC80C5E
BB9C141D
3E4F9DD4
BE8C9BB1
3E556A18
3E05C28D
