3CC21437
BE4A87D2
BC9885D8
BE01FA45
3E53FBE1
BDFD924D
BD8A7942
3EA42DFE
BD2E730D
3DC39714
BE39287B
3E741739
BB57992F
BE46273A
3E8DFEA7
3CE4C1E0
BEA9D0D0
BEDFB7C4
BE57FC13
BD8C1237
BE293F14
BE0D3AE9
3E7116D6
3DCDDB90
3DC98ADF
BDDAEC6C
BE1636E6
3D7C7381
BEB5CACE
3E63EB89
3DB1B038
3E07C78F
3E51FE69
BD7A6B94
3E856D3A
BD66179A
3D332031
3D2D6FC9
3E9370DB
3EC89DA8
3D33FE2A
BE818013
3D6588A3
BD05F507
BE870631
3E4199B1
BD7D2BA2
3D7456BC
3DC15A09
3E305242
BDBA31DE
BED89FB2
3D915677
BE111618
3E5317E8
BDF74E3B
BBA2617F
BE5A870D
3E70F769
BE44C405
BDC62B12
3EE145BB
BE2112D0
BB58F09D
3DE826FB
3D44596C
BE0EDC24
3E414B3A
3E417598
3E63B90A
BDD26C64
BE6B2631
BD7D43AD
BE79C664
BE803C52
3DD62B4C
3E1E75BD
BE6ED3DF
BEBD3B9C
3D810ADE
3E50FA0F
3DAB2D10
BEA3F1D7
3D9E456F
BE6F0DD3
BE4B78CF
3E41140F
BDA54A13
3E2E2414
3DBC5F58
3E4D55ED
3D812F74
3E38D830
3DE9CA98
BCEF0CA3
BD5750AF
BDAE9FE7
BDDE13FC
3E3C35F1
3D207602
3E441AAB
BD2EC7FA
3DF74079
BE21AA92
BE8B6EC9
3E421D77
3DB98549
3D4DCD45
3DFFA019
BDABB916
3E2D6BB5
3E4C8936
BCD53F22
3C31C8BA
3EDF267F
3D2FE73E
BD978B92
3CDD55E7
BE7D8B71
BCBA78ED
3E215D2D
BE8BB052
BE060A52
BD2B4DAC
3D9A5DE3
3BFD0D5C
BE944F33
3C1A15E1
