BD61A96B
BD0278F1
3D28D843
3EBB634E
3E062C6F
BE07745A
BD603D1F
3DBED18B
3D655D4F
BCE27D43
3EE7E91E
BEBBF958
BD58E211
3CB47878
3D9C72EC
BD1E2AC8
3DA30C92
3E36734C
BE72B198
3D86FECF
BE9AF6D4
BE84D7CA
BE35F81F
BE5F2664
3E582706
BEB672BC
3E243D93
BE319E53
BBAD37F2
BD9845C4
BE82D624
BC9801C4
BCC0EA4B
3D92DE3B
BDE7CD78
BBE27568
3E9273E2
BDACE628
BE5D5DCD
BEC488E7
BEC4EC82
3D1A2EDB
3D010BFF
3DC6E07F
3D32F06B
BCD87C53
3EAD14EB
BE18234E
BE0033E1
3DB56417
3E09C6A7
3E409C9E
3D8E5CFC
BB8A0903
BDDC6993
BCC1A231
BEA57F4F
BEA67B19
3D7B4E32
3CEF9FB6
3E52F1EA
BE5EBB47
BC45AC1C
BE6993D6
BE64BF3F
BD46EA22
BD6CA570
BD7CF0D2
BB457E4F
BDD73CEC
BD1A139A
BDE97834
BDDC4405
3E954302
3E1E5837
BC6CCC72
3E0E8172
3EE53EC6
3DB5E961
3E85E5EE
BBACF25F
BE90F8ED
3DA353C2
BDADB19D
3D6DC355
BADE3987
3DAD825C
BDA0FF96
3DF16C5C
3DE3C768
BCB05F39
3B91E1D5
BDC3F82A
BE17E2B5
3EABDB52
BC13EFF7
3E45BA78
3DB52F8C
BD7C76FF
BCC6C053
BD0F678F
BDA3A4DF
BD4B9F5B
3D975F31
3E9AE590
3DEA2224
BE231C96
3C0BA092
BCB931E0
3DB61678
BDBF6284
BE594E14
3D334562
3DE4FA92
BDC3618B
BE5C4EF4
BE4A51E4
BE122D82
3E186171
BCBEAB51
3E66DF11
3C320CC3
BDC8BFB7
3E0ACDD1
3E13D20B
BE0A835E
3E018B18
3E597474
