3EF6CEBC
BED99E1F
BE604197
BC5C44C5
BE1622C3
3E79C9B7
BEB6C26F
BDE9787A
BE171EBF
BE847671
BEC39288
3EA4B503
3C1FBFEF
BE32FA97
BEEC7C26
B9F13169
BE80DDA6
BDB6B44B
3E5F4032
3DD50C7C
3E5F499E
BD92AFA3
BED20802
3E5BBADD
BEF36124
3EAE29AD
BD573B83
3DB4E65C
BE6EF6EB
3E876090
3E8A7C92
BE43C632
BEB6EB0B
BE37FF96
BC17F9DC
3E363968
BEA960E2
3ED6A4E5
3D95A410
3E63E703
3E8ADAC8
3E1F27A6
3DA2133C
3D91BC66
BC76FA73
3E24A2E4
BE93693C
BDB466FA
3E0FC3C6
BE3A8226
3DF299CA
BE0ACD8B
3D422FBB
3DD72F8E
BE0F625A
BEA80DF1
3E557C5E
3E784A49
BCF72088
3E6CC13B
3D7EF3A1
BD6BBDDC
3E1CEE1F
3EAB6ED0
3EDFB7BE
3E746186
3EBDFCEC
3E61A96B
BEEBD970
3CF3A874
BE323846
3E770D1F
3E03FF55
BDB33DD4
BC34F97C
BCC64EDF
BCF742A7
BE928326
3E78AAC1
BED9FD96
3D42C02E
3BD26E0C
BE927C39
3E9176FC
3E27351C
3E37825B
3D16FC8E
3E9354B3
BE55BECE
3DC6399B
3E274867
3EA0B59B
3CC5C10A
3EAE1535
BF0921D7
3E674D99
BDFA663C
3E3D303B
3E429884
BD53C021
BE63D9BB
3DB13592
3DC46054
3E1454DF
BD13C99E
BE34ED39
BD916693
BE966B74
BEB28714
BC9FD614
BC3A002C
BE0150BB
3DC7461D
3E6DC1D1
3CA9D389
3EC1C269
3D56E355
BD10949B
BC210178
3BB46DC6
BE024CEC
3F01ECDF
3E44E044
BEAE8192
BCF0B87F
3DCB937F
BE45C8CD
BED43448
