BE06A0C2
BF931034
BF19E296
3CE3ABC7
3BD5E8AA
BF0B4A1F
BD8D4A44
3EFB3849
BF1E9DC6
3EB2C0F7
3F47E362
BF874F77
BD4DCD23
3ED4312F
3F07A7F9
BF9E64DB
BE00DFC8
BF70DF86
BE8472CB
3F08BC24
BF437FDF
BF46116A
3F1B8732
BDF9DCDB
3F46DBBF
BD996784
3D814898
BF0864E8
BEE55508
BD319AF3
BDA86059
3E82467C
3F1209C8
3DF8A6A4
BC40FC6A
BEDA68DF
BD45F9DA
3F738A74
3F09C8DF
3D8681B3
BF04735B
BECAACF3
3F0F7857
BF43F8D6
BEC99BA3
BE90E53F
3F50321C
BEAF22D1
BEBFC80C
3F456534
BF95BC73
BF3C7306
3F7ACEAB
3EC3982E
BD520BB1
3CF75A04
BEFA9462
BF2F9488
3F3B31B3
3DCAFB45
BF8A7A4C
3F10261F
BF104157
BF4757C4
BB7DC66A
BD8AABB8
BF4485AD
3ED2B5AA
3EB2F751
3F32CE1B
BF001FA5
BE7A1B56
BDB665E8
BE57E787
BE29E95E
3EFAE9C7
3EBF1E64
3F3D76DD
BF597C70
3EB2C3CF
3F6EE622
BF199AD1
BED34115
3E61BCBD
BF6120D9
BF2E822D
3F3FF833
BF2A94D9
3F7B9E45
BE88ED46
3F8987F5
3F2B7500
BDE8238D
BC5F7510
3F244C18
BF3049F9
3D4594FA
3F491057
3E1E8B18
BF2AC001
BEDD1CA2
3DBB700D
3F50F292
BEE3BCCE
BF02157A
3F06701C
3F012C2D
3F953FC3
BF48B7B3
3E025E08
BD59812E
BE3720D4
BE3BFCCF
3D8A0705
3E95AFF2
BD2E26CA
BF088AF3
BEA328F6
3EEBDEB6
3F199157
3F34EF17
BEFCB0D4
BED8600E
3F423DA1
BDFEC80F
BED7B6B2
BF852A9C
3D7643A4
BF2460FB
3F36FFAC
3D7EF79F
BF0C02BD
BE5567C9
3EA578C5
BCCC767C
BF465E90
3ECF4F98
3EB52094
BF038747
3F21FA4E
3E36C07A
3E961B4A
BF1CA635
3D9AB6E7
3C0B38C5
3F76E792
3F265B89
BEF1D7A1
3F3366AB
3F0D287A
BD8072FD
3E516E9C
BF3C85F6
3DCD7A91
BE88C972
3F7BD6A7
3F205143
BEF34B3F
3D44338F
BE2D7BF2
3E9693A1
BF6722E3
3E80C5BE
3A0DC79E
3EB4D2EE
BF4B306E
3E9F10C5
BF157AA9
3DE9F533
3E81A387
BE8A3D0A
3E22E27E
3CA1CAA7
BEAC8E6D
BF0AD015
BCF28A01
3C9082C3
BECD0851
3E95A265
3F65C83A
BF10F17B
BE5042E7
3E591DE5
3EFB3EBE
3F5B0645
3F3F1ED0
BF596B2D
BE0DE104
3EBA8331
3D8CC9A8
3F67214B
3C0BFED2
BF597DC6
BF0589DB
3C6B3565
BE9DB222
3E3038ED
BF0E7D3C
3F209714
3D03BA3E
3EC9C808
3F18F40A
BDEBDC46
BEC8D86A
BDC7D20F
BEF8FB5B
3F04A444
3EE1F887
BF0110B1
3F524205
3E9E19D6
3E83E54C
3F0CA9FD
3DA5F349
BF18617A
3E8759F9
BF5EC087
BEADC967
BF1BAA85
BF179142
3E203BCE
BEC3764C
BF22C164
3F5F0C1A
BF2CF12F
BEAFDD4F
BF03FC0C
3F1E162A
3D8B916E
BEBB21E5
BEA7BEE5
BF1909AD
3F19A1CF
BF459546
3C595525
BEFD35A3
3EF3037D
BEBD1338
BE5B844C
3E10B5B8
3D1073DC
BED743FB
BF09EE7C
3D09980B
3F326242
3EEDCEF1
BD3617C2
3EB9CE6A
BEF4505E
3E25712A
3F320D79
BD381BAE
3D90B182
3E8B5B71
3F4246D8
BEC238B6
BF0FEA94
3E6F94A4
3B3C12F8
3EB43FDE
3E9EB3C5
BBE3247F
BE255693
BF113EDE
BD350A60
3DE82216
3F9C3776
BF5553BB
3E1E7B27
BD4A9C00
3EC9E0CF
BFC17D3B
3D232F48
3EF5C6B1
3F0E7570
BF4CB58A
3EA754D1
3F6DF1D9
3F3CA35C
BF206DA1
3C9B8CCF
3ECF4DD7
3DAD09EE
BF1A5B49
3FAF5BB3
BF1FF818
3E25101B
BE2F0F55
BEA55313
3F0E8E45
BEEAE0AB
3ED82C10
BF96EDF4
BE17B20F
BEABB64A
BED0D8C9
3C7F3B53
3E18D361
BE585411
BF215026
3F8E6F23
BF340EAC
3EE4D3C3
BE7CCF59
BED11590
BDCB9248
BF5A15EE
3F8F5D89
3F0E4846
3E18CB03
3ED77305
3EB6A17C
3BB9CEDD
3F2C5B7D
3F0F3146
3E8A574B
BEA0544E
BF85834A
3C4001AF
BE328D24
BE1C15A1
3DA57B3C
BF0CB6FC
BF2FF61F
BDC2F87A
BEAD187E
3F6AAD77
3E51921E
3EE03ED7
3EE40F09
BAD00131
3F70A74D
BE133793
3F5D5A68
BEDE935F
3EBCF7D7
BE44F067
3F6AD854
BF1A2D01
BEDCF687
3E627C3D
BD4A1C2B
BEA5B6D8
3DCE9E61
3E8FD694
BF9116A6
BF544691
BF02C372
3F5BDAAA
BF2AFA22
3F897AA0
BEB30594
3D797AE9
BE8FD0E4
BF3AD143
BF312905
3E9DCD78
BEDC6114
3F567AF7
BEB7CB35
BF945B16
BEF7B53B
3D35EB6F
3F52A1CD
3EF34E42
3F0C2DD8
3ED0BB73
3F217EAA
BE6AACD4
BED2F781
BDECBD47
BF07156B
3D88C05A
3F03BC57
3E0B7295
391581F5
BE7DAEED
BDA17DF1
BCCE9109
3F2BFA38
3EE626E0
3E2B772A
3F08F957
3EE0571A
BF2184AC
3F8726E9
3EF7F47A
3F775BA9
3E4F449F
BE941123
3F0D3062
BE3B6EC4
3F584B00
BD9F9090
3F88E53C
BF633510
BE8007FF
3ED307E4
3F0FB836
3F8B1778
3F61CA1C
3F673D4F
BECC9AA2
3EE42771
BE959142
BEF62A06
BE98F585
BEAFE5FE
3F497E2F
BF3FB529
3F5A0260
BED6F95D
3E8026DB
BF114EA7
BF1ED5B7
BB38E8BF
BE4D3AA7
3F043215
BEB73F8C
BEA30965
3F56EE48
BF6612A7
BF7B9AF5
BF93842B
BF557CDE
BD674ACA
BE941276
3ED0264C
3E4D10E8
BDD35B8A
3F1966D1
BE25A883
BE7730D7
BE2A794B
3F502DA1
3F1588AB
BF298EA0
3D86E6FE
BEB8ECFC
3E4E012C
BF40B508
BF6585B5
BF1AD056
3C9A8324
3F64C33A
BF74001E
3E0609AD
BEA49D65
BF510407
BEA3C1CD
3E8EB9F4
BEB3E483
3E61B6C0
BE9325A7
BD038711
BE78F641
BE2FE52D
3F74E1F2
3EA9EFE6
BF1A6126
3D40816D
3F40CA15
3F0D70C9
3F4B158D
BEDD8AE7
BF333D2B
3F7DCF5A
BF1EA768
3E9CEC74
3E75C4D3
3E268C96
BE8A180F
3E078465
3E51585A
BF10A49F
BF7DF30F
BEE2C9E9
BEBCB525
3F85C5C4
3DB44019
3EDE7D75
3D78E970
BE83A507
BCF8FEFA
BE5B2ACF
BE15F884
BF6EDE43
3EC4CCF9
3F9623C2
3F254D48
BE8A03C8
BE6423CA
3EF05B85
3DFD0FF6
BEDEAF48
BE8DF49F
BD987BE4
3E1546D7
BF132A61
BF853DE3
BD2576F8
BEF1599C
3F13CC5F
3D033BAC
3ED8215E
BE05DCCA
BEEAC41F
3E373989
3E9BE3E4
BEADA429
3F519BA7
3F86A994
3F7333D6
3E35731D
BD8EA8F5
3E722B88
BF046E3C
3BF48726
BD6564CF
BE9ADC86
BE788644
BED4A7B2
BFA06183
3F3AFC22
3E9056E6
3E8D3EF2
BF36B8AE
3DCC7422
3ED1F5F9
BE517F73
3F08A0A1
3F2C02B5
3F2B9007
3F0001D3
BF4EDA9F
3EBC2919
BD5AAD7E
3F78E94C
BE7C28BD
3CB0E698
BF27C6FE
3E0E963C
3EC5D5E5
BE89F835
BF498EE9
3E98600D
BF1589C1
3F78A812
BF7F7489
3F3B8420
BE84AF40
3F136D11
3FA30C3B
3F06F74E
BE950995
BD99C5C8
3D913FD9
3ED347FC
BECD565C
BE4D44F5
3ED821F2
BEC3BFE2
3E6599A7
BEADEBDC
3EAE5C6A
3DAA20D3
BECFCDD6
BF05C010
3D564775
3F44E86F
BE50C67F
BB99AC0E
3D1878C5
BEE8E18D
BEB46C9B
3EF1DB6D
3F7925F2
3F3F2206
3EE90949
3E9E93F9
BF98DB39
3EDC7C5E
BF353E69
3F23BB7A
BEA739DE
BF70B590
3EC53E07
3DA160A2
BF05893F
BF2AFA44
3ECBA06F
BF935A4A
BEC131D5
BE9B4578
BE280DA8
3E0359C2
3EBC9E7B
3EF5BE47
BDAD29E2
BE494593
3DB240D6
3E087309
BE935D89
3F3E50BE
BE083AD3
3ED750B2
BF55165B
BF2D9CF8
3E7F8B19
3DC0F4C2
3E95D23C
BE9C5A5A
BEE4E1EF
3F0483E4
3F0EF459
3F51CF1C
BF7B3298
3E8BC3D1
3EE7B099
BF6589BD
BF200D2C
3EE6D565
3ECA5CAE
3D1E5C92
3F0E7D77
BE956BF2
3D774597
3F06B89D
BC2A355E
BDD938B9
BD5F4961
BEADB180
BF1D1271
3F4D146D
BD31C453
BF2D8C43
BF4BF86D
3EBD8704
BE963AC9
BF9192B4
3E8B9A05
BF14B888
3D78F019
BC156AAB
BF02D282
3E1996F2
BE636BA8
3F5DAC3A
3E96ED34
BE71A952
BED3BEFB
BEEE328D
BE19FB69
BDAAE314
BE8EFEB8
3F980DF6
BE8FA302
BEF085FC
3D436C97
3F158BED
BD2259BA
BEFCD521
3DADBCF3
3EA96BE1
3DBA1574
BE84A5D4
BEA9E89B
3DD67824
BE4D323A
3F375FD9
3B5E5560
3E933E95
3EB88BC6
BF110838
3EF0B1A7
BFBB4A96
3F22DB67
BE0FDA34
3D0319E3
3EDF3FA3
BEC896E4
BF3478C3
BE0044ED
3E9C8168
BECC345B
3E24059A
3EFA1007
3E660BBD
BEB4E217
BDD471FA
3F8C8B39
BF388F22
BF21D47F
BE144D08
BF39CB25
BDB9302D
3F35DCB8
BF2171B2
BDA53747
BF135D70
3F6A6B67
3F833F4A
3F5BE0A0
3C3E3B65
3E6D204E
BF8333EB
3F4B7A6A
3FA02739
3F5B33A9
3EADDEDB
BF09D6E7
BDE12BC2
BBED810D
3ED5BB07
BE4030AB
BF8A6B33
3E04E8AC
BF194B86
BEEF0C61
3E6FAEC5
3F8D2090
3B86709D
BE83B1D9
3E9F6BE7
BEAA90E3
BE06C193
BD34AEE4
3C5B856D
3F3438A1
3E7A1BDE
3E17D9E3
3E520F5F
BF8C33B7
3EA2407A
BF8EDD62
3F71C53F
BEEA6392
3F44638C
3F1AD0B5
3D34763F
BEE5E8D1
BD0AE49D
BE497E23
BF395612
3F8B1456
3F3DED3B
3F11686E
3E770FF6
3E3D172B
BF7D2D84
BF44D08D
3AF96B66
BF5B484D
3E85512F
3F3EF4E8
BCD82494
BF2776AA
BED9CD14
3F5DFC00
3EB9D57C
3EF69B7E
BEE34BF0
3D109B26
BE6F385D
3F5D5699
3C2E8188
BF0934D2
BDAE6F31
BEB5AAB0
BE1F93F5
BF5EE72C
BF887AC9
3EE37D0D
BDCFBBAD
BD81D824
BEDC2D0A
BDB95B55
3F40BC93
BF87588A
3ECB6384
3DFF943D
3E8F3BD8
BD8B612A
BF97114F
BE735A22
BC9459A4
3F30F18E
3ECFBB28
3EDA52B1
BE4E975A
BD672F14
3F41F40C
BF402179
3FA3B06C
BEA6B9C5
3E19FD81
BDE69F65
3F09ED0C
3F81A259
BE761FFB
3F025D62
BF5C45C4
3EE94E60
3DA18853
BF8440B9
3F8CBF80
3F04A745
3F8E6854
3F72F025
BDF74555
BED62FF9
BF6E1112
3EC44D97
BF009AAE
BF40092B
BF0ABC52
BE9658A6
BE9F5ACF
BF09B4FA
BED5BAC3
3ED09C4C
3EA80E7B
3F56902F
BD60717A
3E89780A
3F4BA47B
BD9A6CBF
BE7E3504
BF8E8DA7
3F7BA5EB
3F3F6419
BE91E09E
3EFFCEA3
3E6FEC14
BE6AE390
3F30A864
BF054012
3F0716FB
BE86D469
BEBABB42
3F3323D3
BE902589
BE41D6D6
3DD24EEA
3E5FB50D
BF912FA1
BECBB224
BD77C4E6
3F560EAF
3EC9AA98
BEE4D6BA
BF00B01F
BF2E8963
BEF3CE6E
3EFDC816
BF34752B
3F4FCF15
BF0E1839
BE7EA3D1
3E5AEA9B
3F2B1E31
3EBB2C26
BF1DF852
BF17F2DD
BEEF0619
BE928214
3D762C9D
BF03CC06
BF0B122B
BE750857
3F147A01
BF3A4EED
BF4C2334
3E41EB47
3F3FCCBF
BF0B302E
3ECF136B
BE4C8ED3
BD0C6BDF
3EEF5BAD
BF220B1A
BF1DBAA7
3F2CDA96
3ECC2E90
3ECB42A5
3F64AE72
BE21CE86
3F5E5FF4
3E387808
BF118E57
3E701062
BE77F61D
3E1E6037
BCCDB3E3
BF2DE474
BF8E4F5F
3F3E5AE4
BEF306DC
3E180D85
BF072626
BF301DF8
3F06F987
BE73466F
BE9D5522
BF5F71F3
BF358260
3E979706
3EA3F5DD
BF5C5642
3EEA565A
BF365FE9
3EAEDBBD
3E0D4F2B
3F44F70F
3E85C4A0
BEF4A322
BE561C3D
3E845269
3F7B535A
3F23B328
BEEFB0EA
BF1328BF
BEF6CBEE
BF073CD9
3F15A7F1
BEBD0391
BF15AF07
3E56CC0D
BE4AAB72
3E134963
3D19C35B
BF62BBF5
3F37E79F
3EC9D5CF
BF6B7C3B
BF57DD4B
BF7D8745
3EF4C200
3FA6C657
3F000AAD
3E101C5A
BD01E6A2
3F30152F
BDE9C5FA
BF0D1270
3F828013
BCE9A82A
3F72E03F
BE83F91E
3F0491F2
BF30C8AF
BE5F2E96
3FA39B7B
3F0320A0
3EE9E5CB
3F0436D3
BED87D14
BF37DCFF
BEB279B8
3F58A785
BF1641DB
3D667027
3EB70E36
BEE3F624
3EDCC301
BF29CB1E
3F4C4F66
3FB09567
3CF79268
BE3EF4A4
3E9F3114
3FA51EAA
BD712C02
3E9DFAC4
3EBE45FF
BF70FACE
BE922113
BE8A00B3
3F518DF5
3F10EC76
3D0C6B73
3E24F96F
BF277AF6
3EDB83E8
BF173546
BD098545
3E116A2A
3E7CE1C0
BF38C367
BEED2EC6
BE228B0E
3F124C65
3E52E643
3F238818
BF265F97
BE18F575
BE963273
3F20A196
3EFDE9FE
BE440B5C
3EDE70E8
BF8AE7C3
BF88EEED
3ECB7EAC
BF04A3EB
BE72FAC2
BF2C15ED
BF3CDEBA
3E93E35B
3EB04C31
BF85A936
3F4446C2
3F3E51D4
BEA0759F
3DA5F084
BE9DF8FB
3C8CE104
3F5B0EBC
3EDD343C
3DBBEDE6
3EA7B509
BFA30FCC
3F16B700
3EA18976
BEB595BB
3F488FD4
3F412D34
BE92A5A0
3F186208
BE7B0F16
3EBD154B
3F055C8B
3EF800E6
3EC63969
BD9783F4
3F3F3791
3F2EBE45
BF3AF26E
3F6C5C45
3F4E7925
BE8E1D45
BF59AB2B
BF58EE13
BF3F7839
BE4E026E
3E8E5FA4
3E50FBB0
BF12C83C
3F08A4E4
BEE3E950
3DB8F5B1
3E97E131
BF1637E2
3DC023C7
BE3FF7F2
3E4D5450
3F0D0448
3F215EB6
3E6724A9
3F3385B7
3EDBAEFB
BF7C7165
3F3AAB28
3F414D99
BD4FE18D
BE90A242
BF095CCD
3D68C75C
BEC551E3
3F3AC127
BF1D4B47
3F5641DD
3F6612DD
BE85FF3C
3C9DA2C3
BF540B61
BE82D7E1
BF36B8FF
3F5668F4
3E49D6C7
BF3E3673
BF1FD4DF
BD2EF241
BF26993E
3E8B2ADB
3F16266D
BF36D3A7
BE99FFD5
3D9E9A56
3E8B7C1A
BF36E852
BEBFE4C2
3EF0E91E
3EA2AA3B
3DB01836
BF884019
BF6E61BD
BF1AE655
BE8683BC
BE97A458
BE4F8E93
BE362CFE
BF0C1E27
3F4C0F3F
BEDAC092
3EE14395
BD559C14
BDB9EB78
3E116997
BE650FD7
BDBC1979
3CB85D7F
BE83B300
3EA68EFA
BE084F67
BEF8031A
3F308172
BDCF4AFC
3EC3BEBD
BF229960
3E8416DE
BFB1F3F6
3EBD4890
3F21F768
3FA436B5
BE9116B6
BF6193B1
3E50B8AE
BEBAB5EB
3ED98B72
3E06C600
BDADD71F
3F307CBA
3E8CF57B
3F6CA85D
3F2222E0
3F0C1CEE
BE7C1D8D
3F52E527
BEACD41C
BE45BDED
3E9648A0
BF84FACD
BF47F565
BF11A368
BF905487
BF243CF7
BE96A7EA
BF2A9C7B
3F4C7E8E
BE3220D8
3EF3CA07
3F63A442
BF39C487
BDE5F166
3F6D46B7
3E81A74E
3EB61FD9
BEAE9870
3F0C7EB0
BE0BF503
BEB3E8B1
3DDFB0D8
3EEF8C5E
3E08F801
BF8F7A19
BDC3394D
3E813FE8
BEDCDD8D
BEE6AE89
BF3CA551
BEF5149E
BF3B700A
BF2F4273
BF9D132B
BEA62E56
BEC52D92
BF2C85F2
3F26111C
3EEC8165
BF8292A6
3EBF665D
BE322B8A
BE59B75E
BF34B6A4
3E2A3B5B
BE91B1DA
3F5FC747
3F1B196F
3D8F4215
3ED75F51
BE38F634
3E45689B
3E88ED2F
3F070AB9
3F710704
BF3BFB8B
3F06EB83
BEF9B065
3E836BC6
3F33AB8B
BECC036C
3D9FEE8D
BF262E42
3CA94C90
BE337100
BDA550D4
BF0788E5
BF7B2707
BF45E73D
3CDA7821
3EDF554F
3EA60F78
BDE38849
BF1E0F55
3F286960
3F04010D
3F23F83F
3ED0D81D
BF4A3F63
BF3E0705
BB7BF65B
BDE97463
BE01964A
BD45CB86
BE9DAC26
BE0576EA
BEB01246
3D38DCE9
3F029EC4
3F66CA51
BF0BE981
BF26BC1D
BF25EDF8
BE01FE6F
3F1CCC3E
3F07FE93
3F0FF5E2
3F111FC4
3F56768B
BF84F1CB
3F80FD23
3F97F8ED
3E26B12D
3DC88EF2
3F20E8DB
3DFE52AD
3EFBF9E2
3E856684
BDB7BE93
3F21AFB8
3F69009A
3EC7FA16
3E47EBED
BF6A2760
3FB44BB5
3F3FF69F
BEAE0E34
BF90CBFB
BE9B85EE
BF374F8A
3E03FB2B
3EED8FF0
BF2409B1
3F3D4A06
3F6D5CBB
BEB11510
3EBE8BC0
BE353F94
BF173E5B
BF115D07
BF58C990
BDAE62C3
3F85F6F3
BDC0B13B
BF21D061
BEEBE029
3E995183
3DFA38D4
3E4BC1BF
