3E6CFC6C
BE976705
BE871D5A
3E66ACE1
3D86CDED
BE61C05A
BE398419
3E876B3F
BDB8BBFC
3E034D86
BE3A207C
3E55079B
3E60CFFB
BE092842
3DD3A7C8
BD652F48
BE741C56
BEF4217D
BE93A3F3
3E9CD5E0
BE1CBB8A
BEAD3849
BEE0392A
BE04D00B
3E514409
3CE76EAF
3DEA6877
3E068D18
BF1FDEDC
3E0B6C0B
3E426AF8
3B93D661
3C027EF6
3D29C01D
BDC8B233
3E869E4E
3CDF0D26
3EBF6B02
3EEA821A
3EB1805E
3EA6506D
BE002339
BD049764
BD938734
BE9EDCFC
3E5E5EE8
BE50FD26
3D13D3CF
3E8230B1
BE0CC1CF
BE542D07
BF2DD58F
3E868119
BDC7B9AD
3D91A4B7
BE7F928A
BEF00928
BE9062B0
3DB2929A
3D99B69D
BE399CD2
3E99FF93
BE5613BA
BE30AB7D
3E89C341
3E2A507D
BCA8DCD8
3E591646
BEA099F1
3EB65CD3
BED16842
BE839C0A
BE6456D0
BEAF119E
BDFD4B41
BDA79D1C
3D99EF41
3C6B431A
BD18AE35
BD2159CD
3E0CD090
BE76C6BB
BEAA42D7
3E5385A9
BD96E486
BB86A7FA
3EB3BA38
BDE0B746
3E1FEEA0
3E6DB2C6
3F0D7E03
3ECEE157
3C90309F
3E99653B
BD0C7081
BE793ABE
3D3FC814
3D314911
3EAE817B
3CCE9CD1
3C8A8A3D
3DE5BDEE
3CF6FB2F
3E650825
BDCE43A8
3E921C47
3E4C4BF4
BE0C74D1
BEAB3EC8
3E25CD75
3E46F450
3CBB3E55
3E598F9D
BCD65329
3E867189
3E143B2E
BE982F4B
BDBE88A0
BC0A166F
BD5FB006
BBD60B3A
3D3CFF72
BDE56941
BE0AEBA7
BEBD3BF2
3E9D9C33
BF035A10
BE9D620D
