3E4E128C
BDAA139A
BD12E35A
BE27805A
BC0A8641
3E78708C
BDD23834
3DB10C10
3E1EEC7B
3E0AC718
BED4ACD2
3EFECF1D
3E022E2F
BED7EFE0
BE6A946D
3E2F037C
BECA1FF4
BE9D85EF
BE3E510F
BE0BF1E9
BC4761B4
BD949831
BE9635C3
3E2ABB95
BEB1BD1D
3CE9FE8C
BE0540D7
3F0FFBD4
BE3E0DBF
3E9A1A72
3E2E9C98
BCD5B6D1
3DDF6905
BEA95D7F
3E508881
3E2187E4
3E5F634D
BE0BC389
3EF30F43
3E59DBB6
3E6C08C9
BCEE4D96
BD77DC93
3E5536AC
BE908F77
3E263698
BEFDB070
3E9A87F2
3ED00CAC
BE87595D
3DAE48AC
BE91587D
BE710635
BE93FE6F
3E0DECB6
3D50CEF2
3D592706
3CCE3A80
BD728C6F
BE798F3A
3E415B9F
3EE682A0
BB5470DB
3E075DD7
3DDCCFBB
3D5637A8
3E0F8045
3C793947
BDF03CB2
3D4E6952
3CC34E2E
BE709012
3D71C631
BDC1E065
BDF9A25B
BE68AD38
3CE1389F
BE8E52C5
3DCB0876
3CD0C651
BDFC76C8
3E5F4F47
BD2650E2
3E8F180A
3DFB8D57
3DA03CED
BBED3FDF
3E508F85
BED7FAB7
3E6CB1FA
3E9F6787
BCB447FB
3E230E74
3E662AD3
BED9B6E0
3E945D0E
BE2E17A2
BE737775
3E7D1975
3F019E12
3E5249B2
BDD67EC9
BEB01A30
3C5712E1
3E16BF8E
BE2270A5
BDE97C3E
BE3293ED
3DBFF21E
BE2B1A78
3E36F3DD
3D95C7A8
3D77B2F7
BCC40A76
3E85CFEB
3E9A3F3A
3BBC4AA8
3DB9054D
BE64E688
BE043C6C
BE4F4953
3E4581D3
3DF4101A
BEB4A8DC
BD9BF066
3E9A1CDB
BE0D2FB4
BE888D1C
