BE7FD145
3B8F8B8E
3DB06538
3D31A35E
3E3679E7
BE505F2B
3DEF5B2A
BB9F0818
BCDFE858
3DB9D293
3EA39C10
BEE34390
BD613849
3E0B71BA
3EA37AD6
BDA16F46
3E135A26
3D47D82D
BE0610D3
3E18F198
BDF3BBE4
BE4C2AEE
3EA8AE5A
BBA15E9F
3E65F50B
BDE7DBA3
BD1D5236
BECCF3F1
3E4AA429
BD473425
3D11EB60
3D1E28FB
3E799B60
3E2F3CDF
3DB1E795
BEBDA79D
BDDE15C5
3DB3E86F
BE0E9413
3D2E057A
BE8B9024
BE537718
BD28E8E8
BE33601C
3E6D7ADA
BDA21231
3EA1586B
BE00844C
BE95E909
3E56B5ED
BC3821FB
3D14D39C
3E2D3864
3E1F5447
BC185F1C
3DDA0E39
BC473A06
BE3A2F64
3E83467D
BCD32998
BDC5FCE4
BD3E5825
BDFD9A2B
BE6C64EB
BCA23463
3B831F6F
BDB507BF
3DC92FD6
3E9B1F0F
3DB9E3A1
3D49153D
BE543BC4
3BBE8272
3E4D3E70
3C0B555E
3E461584
BC080A7B
3E9A91DC
BEC368EB
3E8FD74E
3E9BADF8
BE0BA2CE
3D0B7AF9
BE5F5D52
BE39AC1C
BE2F4EE5
3DEBC9A4
BE59308E
3EE791FB
BDBEE329
BD07940B
BCDD1C8B
3C80F878
BE0326D9
3EC9F4ED
BE5DBFDD
3D50E33A
3D048F0E
BDE4F2E9
BE841985
BC87CA3F
BC1CCA26
3D937479
BE3515A0
BE282EA0
3EA6F497
3DA8B2E1
3E70122D
3E3D2C04
3CA35FFC
BD472EC0
3E04C65F
BEA9B933
3BAE72C5
3E465B58
BE4D4CE4
BCC43187
BDA53F3A
3E2BAEC1
3E39E57E
3E89B9BF
BEC9585A
BE51B267
3E6F2893
3E70C1DB
BE8A80FE
BDC6BB1C
3EB7E792
