3EC1D325
BE2DD6A2
3DA2A27A
3CD8645B
BEBBF328
3E8C3ED3
BE16E3E0
BCF436E4
BE432D07
BEE03CD7
3D69F60E
3DB3FBA0
BEC24D2F
3DBCD3D6
BEBE5230
3EFE45B7
3DF4A7DF
3E825EE8
3A8E338A
BDE16A48
BD84FA18
BDBCF84C
3E33CF53
3E6DEE13
BE346313
BE9BF559
BDC95F7C
BE5A9E10
3DB4E0D7
3D3C8608
BE2CE10B
3E0FBA3A
BE49D720
3DC855EA
3C3DE3FC
BEF36A0C
3EAECC8B
3DC5F6A1
BF009E96
BECEAF32
BE84E4C1
3D104DC0
3E8EEEB4
3EC79DAE
BD81388E
3C475310
3EA7EAF2
BCB663AF
BE9F6FCF
3E931A08
3E913D2D
3E6CBF7F
BE8262CC
3D69E67B
BF0CAC5B
BE391C64
3EEF7EC1
BDACA3B1
3E1B9B79
3D9B70C4
3DA1B278
BEBABB1F
BDDF8606
3EE013B2
BD91CBD8
BE2C3A28
3E993737
BDA17563
3DC25A37
BE96C7A1
3E4CFA03
3F06532E
3C48F9AF
3DC3BFA5
3D13F484
3E42812C
BD8E3AE1
3C4E1501
3E6FCE25
BEE485B9
BDED7AB9
BEB4B3C1
3EB54D75
3E863EF2
3CCB2619
3E144C5D
BE6BD224
3E8F8AC6
BE4566F6
3D8D9315
3D7E26A4
3DF795BE
BEDC7577
BD7341DB
BE1E1DE1
3EC71E87
3CA3727B
3ED606C5
BDC90DB4
3D39BB30
BE92FB58
3E886DF9
3DC8FA60
3BA3F66A
3F00780C
BE83E893
BEBAE580
3D8EEF14
BE21B94F
BDFE8568
BECAF94C
BED60224
BDB2730A
3E788746
BEA04891
3E75978D
3D8ED382
BED0FC93
3E8309EE
BE800DC4
BD036109
3EEBE403
3D6D493F
BCA41D2B
3E8F70FB
BEB1A9AF
3DF90C4A
3DB3DE09
