BE926AAB
3D24CDDB
BE73741B
BEE7794F
3D859A23
3DF76566
BDAA5DA8
BE19F81E
BDF1A5F0
3E61181A
BDF1A6EC
3DDFC956
BE0070B7
3D3AD14F
BD92BD1F
BE96C438
BE438C21
3E198B1F
3E6678CD
BD38DE38
3E1199A3
BDF904C0
3E86A3AE
3E83400D
BE9C27EF
3E805F72
BE810263
BC1CC94F
3E87E24A
3D65F83C
3E714CE8
3D36C353
3E8A0CF0
BEC8C6DB
3EA49AC2
BE88EF6D
BCA42CF2
3E4F0D9D
3DB021AF
3E390AD1
BD0684BF
BE06E9DC
BC2DD73E
BE5AE134
3E368333
BE9AD317
BDCA42DA
BE2A16E1
BE89A3DE
BD49E5BF
BE77752A
3DA6A4CE
BD600874
3D999593
3E8F903E
3D4D2B11
3EC91D07
3E979FAD
BCC839E0
BDB6FEC7
BEA812E1
3EAB6CEB
3EB9222D
BDBBD734
BCAED845
BE4595AA
BC4AC81F
3E06F54F
3DDF9254
BDCFE9E5
3D7BB0B3
BB0EB9ED
3EB76AC6
3D9EECA2
BE14E481
3E60721E
3CEA31AD
BE8A5EA1
BE7E29B0
BCB6B680
3EBC5A91
3E917FDA
BC1BDC1B
BDE18170
BE8504AF
BE0ECC6C
BD0E33C5
BE0F9149
3E892AE7
BE5634F7
BABE95D2
BE2BE8B1
3DFBD9EF
BDDC1F3A
BE18D089
BC526FE4
BE406953
BDC7E2CF
BE489BBC
BE6B4745
BE294A28
BE18EC85
3E027ED4
BEFA3BD3
BE01142A
BD1A17F4
3D5E6240
3C5B6226
3E0321C7
BE5E7D7F
BE2DCEBF
3DDE8782
BE6AC9D1
BE10F0E0
3DA3DAD7
3E2F557E
3E9609C7
3E9A3768
BC107375
3E9A2E88
3D2A4104
BE0D1D16
3DB3203F
3DF28A4A
3EA2A26E
BE4F7D70
BBCDE1E0
BE712E3F
