3DF0A89F
3E1D1B2D
BE1D0A40
3ECB00B5
BE4C3448
3DDAB468
BB8754C9
BE036C33
3E94DE6C
BE4C815A
BE990467
BDE2F015
BE4F712D
3DB27A0E
BECB9ACE
3F1489B3
3E6D4DDE
3E93FF90
3E23C70F
3ED000AC
3DF2DC49
BEAEABD4
BF2B7A79
3E3CF51B
BE3326FF
3CFB3AEA
3E254F87
3E9BAE7B
BE252BA3
3D9795B4
BDD0407B
BE53F042
BECA4407
BEC4E8ED
BDFD5B1E
BCA032D1
3E1AE1E9
BDCD3DDC
BE162C3B
BEA5B1C5
3E2581AE
3E024398
BD18BF8A
3EA41CF9
BE3524C8
BD7A59F6
BC17DBBF
BE8C1F45
BD9076EC
BE93AF0B
3F0502B4
3E047096
BECE57F8
3DB76FAA
BED9C60B
BE39E6A0
3D4084CD
BE0E37EC
BF0BDD07
3DB802FD
3ED50524
BE9A418D
3EABC9EF
3DB21573
BD89CCBF
BD42FD9B
3F19D701
3DA1A200
BE855E1F
BE31A508
BEAF6E53
3CDC11E4
3E355882
3E959222
3D34C0AF
BF0AA6C4
BDBA791B
BE243163
3F15035F
BE2CEA56
BE01BAD2
BED2D4A9
3E7A39C1
3D0B46AB
3E7A037F
3EB732CD
3DABBA30
3DA065F3
BE24A807
3E7E7DDE
3DBB7CAC
BDF27600
BEC2741E
3E4C87A8
BE6A38F2
3EE432F7
BDE3E197
3EAA20F6
3D1F162B
3E3DA879
BEEFEA20
3D92E567
BEC45E9D
3EB643CE
3F06CE97
BD0E024C
BDF2BD39
BEEB76E0
BE15667A
BE5E3079
BE80BB9C
BE792985
BCF7EB2E
3E957879
BEE841F0
3D74AC47
3A542ADC
BEA63D6C
3E54542F
3DE2A74A
3DFC0C92
3F03096E
3E23347A
BE4650C3
BD1B9804
3D838E36
3E3E1D69
BDCF867A
