BE8819AF
BE60C476
3DF70544
BB8CF485
BE5AE4B5
BDD31B19
BDDFD64B
3D527838
BD5359D2
3C4E9671
3F20DD02
BF245C93
BEC4A610
3E8FCAE5
3D04CFB3
BE236F46
3CE003BC
3E803A6B
BD2F5E9D
3D0DFC14
BE8B8DA1
3A9E77FB
3F10B115
3BEF03C4
3EA58ABD
BEC87110
BD1DA21A
BEBA3E1D
3EE21A9E
BE7775E6
BEAD60FD
3E5E3F6E
3DF6F0AA
3E4260DA
BCA9E541
BF00ED04
3E7EBF5A
BE114F4D
BECA28F0
BEAEA0F8
BF13B3DF
BE33AD41
3E18D9D9
BD64DF80
3DB474AB
BEAC4030
3F37D23B
3CECF536
BEC11780
3EC15147
BE143D08
3EBC3AAB
BD11C2E9
3E7F6683
BEAF16C5
3E16C08C
3EBB8384
BE35FC8F
3E4D9BC4
3E1B9E34
BD0B150F
BE9D0662
3D5C5A4E
BE4CA474
BECCC853
BE899FD0
3D9C32CC
BC6A66DC
3EF01D6E
BE0004C1
3E58B536
3D95B94D
3D9BA016
3E34688D
3CEFC4BF
3E0FACF1
3C9C983C
3EF781A2
BE39D2E3
3E807609
3E7E0A91
BE16FEAE
3DF8B5D3
BC9F719A
BE601DA6
BE119BB4
BE1F8F55
BD9453D7
3E781E0B
BE2AF826
BDA608B6
BDE4B947
BEC56A22
BE90AF8E
3E96F71F
3E37D92A
3E0EDD0D
3F01506F
BE9BA5CD
BEA6440D
BE02F4ED
3C73787D
3E4B4664
BEDDB72C
3D8CC96E
BCA45433
3C65C312
3F0F066F
BC672923
BD1C30BE
BEDD652F
BE20ECF3
BEBEE50E
3DABE06E
BE80F8B5
BDEA917A
BDB6C39C
BE8B9BC1
3F031697
3E7D8D9D
3E990C6D
BEA0ABE9
BD97C4DF
3EDCED72
3ED0D615
BEC7957D
3E275F42
3EEF83F5
